#version: 0.2
t h
t i
th e</w>
a n
i n
r e
e n
o n
o n</w>
o f</w>
e r
an d</w>
a ti
e d</w>
o r
a r
i t
e s</w>
t o</w>
a l</w>
r o
i n</w>
in g</w>
i s
o u
e c
a t
e r</w>
a l
m en
o m
i c
s t
o r</w>
ati on</w>
a c
s i
e l
a t</w>
p ro
on s</w>
s u
i l
e s
a s</w>
t s</w>
a n</w>
c on
p o
r i
2 0
men t</w>
f or</w>
r a
ti on</w>
T h
i s</w>
p l
u r
e v
@ -
@- @</w>
re s
u n
o l
v e</w>
c e</w>
b l
a s
e m
th at</w>
o p
e n</w>
q u
c i
c om
Th e</w>
a d
a g
t er
ati ons</w>
20 0
on al</w>
v i
p or
u l
it y</w>
ti n
d i
i m
po s
f or
e x
h a
ou n
c l
p ar
l y</w>
it h</w>
o t
b y</w>
w ith</w>
u s
at e</w>
f f
w h
o v
t r
g h
a p
d e
b e
b e</w>
t e
ati onal</w>
s h
1 9
t ed</w>
m e
c h
d u
p er
i c</w>
en t</w>
th e
l d</w>
a m
l o
u d
a pos
& apos
tin g</w>
l i
it s</w>
n e
t a
ti es</w>
U n
ev el
ar e</w>
n o
n ational</w>
ar y</w>
i t</w>
u m
re n
委 员
C om
委员 会</w>
&apos ;
国 家</w>
i z
m a
S t
l e
si on</w>
i r
an ce</w>
it ed</w>
er s</w>
th er</w>
ou ld</w>
bl e</w>
w or
al l</w>
Com m
er e</w>
evel op
p e
p ec
会 议</w>
w as</w>
a b
20 1
c oun
a r</w>
at ed</w>
t h</w>
19 9
o s
er n
por t</w>
d er</w>
问 题</w>
Un ited</w>
re g
d s</w>
er al</w>
联 合
ro m</w>
d is
t ri
ti ons</w>
s e
f rom</w>
qu ot
I n
t y</w>
quot ;</w>
& quot;</w>
b er</w>
i r</w>
men ts</w>
at es</w>
in ter
&apos; s</w>
o c
m e</w>
for m
m in
C on
i d
p re
e p
ou r
st r
d evelop
du c
ti c
es s</w>
d ing</w>
N ations</w>
re c
e ment</w>
ro u
i g
c h</w>
men t
联合 国</w>
re d</w>
b u
no t</w>
g ra
st a
s o</w>
t er</w>
s ec
报 告</w>
m an
ha ve</w>
组 织</w>
ic h</w>
en eral</w>
an t</w>
ff ic
the ir</w>
com m
p res
it te
wh ich</w>
发 展</w>
国 际</w>
ov ern
h as</w>
v en
itte e</w>
S ec
cl ud
e g
pl e
ti ve</w>
提 供</w>
gh ts</w>
is i
t en
a ble</w>
c o
g e
g an
I n</w>
t ur
Comm ittee</w>
re l
t u
政 府</w>
a y</w>
f e
v er
th is</w>
il l</w>
G eneral</w>
er v
d e</w>
as s
关 于</w>
ou t</w>
工 作</w>
c es</w>
k ing</w>
p r
w e
d ed</w>
ar i
i al</w>
in clud
方 面</w>
o w
ci al</w>
o ther</w>
以 及</w>
es s
St ates</w>
t ec
re s</w>
gra m
一 个</w>
t ra
op er
w ill</w>
gan iz
d er
o o
f in
inter national</w>
l a
gh t</w>
su p
em ber</w>
ol u
包 括</w>
en ce</w>
al so</w>
be en</w>
l ic
i es</w>
ha d</w>
um an</w>
k e</w>
i f
进 行</w>
s t</w>
p ri
U N
al ly</w>
P ro
ac c
u bl
0 0</w>
社 会</w>
g en
su b
我 们</w>
e f
方 案</w>
re qu
o g
ati ve</w>
e m</w>
机 构</w>
g e</w>
re t
wor k</w>
通 过</w>
情 况</w>
s ti
e ar
w ere</w>
这 些</w>
su r
ou r</w>
h i
pro vi
develop ment</w>
C oun
ou s</w>
tri es</w>
pro c
d ec
i ties</w>
1 0</w>
c re
e l</w>
en t
is sion</w>
其 他</w>
执 行</w>
j ec
on e</w>
决 议</w>
pro v
sh ould</w>
特 别</w>
i a</w>
1 2</w>
en ti
s o
有 关</w>
om en</w>
s erv
s pec
is t
s y
行 动</w>
res olu
C h
ac e</w>
is h
coun tries</w>
ar d</w>
ri ghts</w>
or e</w>
k e
ubl ic</w>
m o
c ri
in g
in form
人 员</w>
A s
ur ity</w>
秘 书
ci l</w>
活 动</w>
pl e</w>
e w</w>
ic al</w>
ag e</w>
h e
ac ti
pro gram
公 约</w>
Coun cil</w>
el y</w>
con c
al s</w>
w ould</w>
p on
ff ec
as e</w>
a in
o u</w>
妇 女</w>
or d
en d
a u
ati n
or ganiz
G overn
建 议</w>
安 全</w>
ven tion</w>
atin g</w>
人 权</w>
im ple
f i
o b
re port</w>
in v
il ity</w>
me e
e ar</w>
s em
al l
includ ing</w>
reg i
u p
f ac
经 济</w>
bl y</w>
i v
g h</w>
所 有</w>
es e</w>
Sec ret
u s</w>
per s
a y
大 会</w>
sy st
us e</w>
项 目</w>
le g
sti tu
su ch</w>
por t
I t</w>
工 作
l e</w>
tr y</w>
or y</w>
e d
un der</w>
or s</w>
us t</w>
su l
w el
os e</w>
事 会</w>
h uman</w>
str u
fe ren
ment ation</w>
A d
on g</w>
合 作</w>
缔 约
isi on</w>
a i
con tin
1 1</w>
resolu tion</w>
st an
理 事会</w>
In ter
e qu
w omen</w>
on om
an s
po lic
m s</w>
i th
g u
s es
e st
m ore</w>
ti cl
om e</w>
区 域</w>
规 定</w>
lo w
s e</w>
v es</w>
es t</w>
r ic
sup port</w>
h n
is su
u m</w>
tur e</w>
根 据</w>
St ate</w>
inform ation</w>
u e</w>
be t
ic ation</w>
儿 童</w>
ec onom
ad e</w>
权 利</w>
a re
con si
f un
y ou</w>
f u
As sem
sta bl
需 要</w>
tic al</w>
Assem bly</w>
提 出</w>
没 有</w>
com men
w ith
措 施</w>
per i
决 定</w>
ch il
t ro
A f
k s</w>
他 们</w>
t o
e ffec
as ed</w>
技 术</w>
a v
an y</w>
res pon
si g
e stabl
feren ce</w>
1 5</w>
R ep
oper ation</w>
as t</w>
m on
d el
r u
an c
D ec
th rou
支 持</w>
代 表</w>
os t</w>
comm un
g overn
ti onal</w>
ic e</w>
ses sion</w>
d ra
m ar
ticl e</w>
系 统</w>
p h
A c
3 0</w>
imple mentation</w>
in to</w>
a d</w>
re at
h is</w>
tr ans
可 能</w>
in e</w>
sur e</w>
ment al</w>
P ar
m ade</w>
tri bu
vi ties</w>
m il
f t</w>
2 0</w>
in ing</w>
管 理</w>
c an</w>
me a
p er</w>
政 策</w>
el d</w>
es ti
t e</w>
pe o
tec hn
Con vention</w>
秘书 长</w>
re commen
vi ew</w>
rou p</w>
stru c
h e</w>
res s</w>
c ap
ci p
r an
ic es</w>
ol og
Govern ment</w>
Secret ary</w>
acti vities</w>
ap pro
影 响</w>
d re
t w
法 律</w>
必 须</w>
sh i
ne w</w>
Inter national</w>
re por
syst em</w>
em b
Comm ission</w>
in ed</w>
we en</w>
pl o
计 划</w>
ur e</w>
促 进</w>
ain st</w>
throu gh</w>
tic ul
m es</w>
资 源</w>
par t
the y</w>
f ol
加 强</w>
和 平</w>
r on
c y</w>
bet ween</w>
目 标</w>
in te
ag ainst</w>
采 取</w>
f ir
our ces</w>
g o
v is
su res</w>
in cre
ot e</w>
p a
i ti
保 护</w>
可 以</w>
A r
u p</w>
si ons</w>
ac h</w>
继 续</w>
wel l</w>
par ticul
an n
要 求</w>
m at
th ose</w>
o ffic
re e</w>
b o
un der
sig n
an s</w>
1 4</w>
establ ish
g es</w>
f ul
200 5</w>
ad op
ag ement</w>
s ed</w>
la w</w>
确 保</w>
at eg
ef for
提 交</w>
ti me</w>
服 务</w>
ra p
行 为</w>
al ity</w>
il l
W or
A l
重 要</w>
能 力</w>
im port
dre n</w>
par ti
si d
s it
200 8</w>
努 力</w>
d ic
f f</w>
缔约 国</w>
il e</w>
1 3</w>
au th
coun try</w>
200 6</w>
1 0
min is
ch an
t or</w>
vi ol
201 0</w>
oo d</w>
认 为</w>
lo c
o re
c ent</w>
l ar
mea sures</w>
re pres
主 义</w>
s el
si s</w>
Af ric
econom ic</w>
a f
w e</w>
美 元</w>
c ur
1 8</w>
regi onal</w>
pro tec
ren t</w>
n um
D evelop
bu t</w>
h an
sec urity</w>
1 6</w>
p en
200 9</w>
Rep ublic</w>
注 意</w>
r it
ov er</w>
or der</w>
requ i
共 和
mee ting</w>
program me</w>
a il
st s</w>
A n
an cial</w>
部 门</w>
ap pl
R i
主 要</w>
建 立</w>
g r
ov er
200 4</w>
Th is</w>
r is
par ag
pro duc
教 育</w>
st at
一 些</w>
l ev
200 7</w>
organiz ations</w>
co operation</w>
ur ing</w>
p s</w>
P re
is m</w>
ter s</w>
is h</w>
u ation</w>
共和 国</w>
ar ds</w>
援 助</w>
cri min
主 席</w>
peo ple</w>
ma y</w>
. 1</w>
al th</w>
使 用</w>
ist ance</w>
作 为</w>
for e</w>
em s</w>
O ffic
is t</w>
审 议</w>
o d</w>
ac t</w>
parti cip
文 件</w>
Con ference</w>
201 1</w>
al iz
部 分</w>
g ro
o w</w>
研 究</w>
ta k
任 何</w>
E x
conc ern
effor ts</w>
e duc
th ese</w>
草 案</w>
2 1</w>
lev el</w>
chil dren</w>
国 际
res ources</w>
en tr
1 7</w>
si ble</w>
ev er</w>
l ec
sh all</w>
举 行</w>
M r
ge t</w>
lo b
期 间</w>
am e</w>
b i
tw o</w>
实 现</w>
ou t
n o</w>
vi ron
Ch in
wh o</w>
ord in
各 国</w>
Develop ment</w>
pro pos
成 员</w>
ad d
th ere</w>
th an</w>
en ts</w>
基 金</w>
f ra
si ve</w>
2 5</w>
ag re
con tribu
ai d</w>
re sul
ur ther</w>
m emb
1 9</w>
ati on
200 3</w>
n ec
信 息</w>
200 0</w>
b a
ta ke</w>
fin ancial</w>
审 查</w>
c or
shi p</w>
Mr .</w>
Sec urity</w>
t ly</w>
环 境</w>
cl ear</w>
num ber</w>
R e
res pec
世 界</w>
200 2</w>
先 生</w>
这 种</w>
pro jec
s ome</w>
rap h</w>
E n
ig h</w>
d em
地 区</w>
ma in
m is
e ments</w>
con f
c ould</w>
3 1</w>
plo y
provi de</w>
因 此</w>
W h
ab out</w>
代 表
p u
实 施</w>
Ri ghts</w>
proc ess</w>
ac h
fol low
之 间</w>
so cial</w>
p ur
O r
ren g
ri ght</w>
领 域</w>
S u
b ility</w>
201 2</w>
武 器</w>
开 展</w>
2 2</w>
0 00</w>
en sure</w>
us ed</w>
I s
d oc
dra ft</w>
考 虑</w>
c ol
参 与</w>
bu il
ne ed</w>
lo w</w>
on ly</w>
serv ices</w>
员 国</w>
相 关</w>
s p
com e</w>
ass istance</w>
issu es</w>
in stitu
n on</w>
发 展
isi ons</w>
contin u
ab ility</w>
关 系</w>
ac coun
200 1</w>
i an</w>
for m</w>
er n</w>
rel ev
y ear
man agement</w>
parag raph</w>
2 3</w>
d o
增 加</w>
ing s</w>
minis tr
全 球</w>
b ud
2 4</w>
W e</w>
战 略</w>
d ay</w>
议 程</w>
k no
S pec
the m</w>
作 用</w>
G roup</w>
持 续</w>
fir st</w>
in di
tak en</w>
这 一</w>
f urther</w>
re f
p ublic</w>
有 效</w>
so ci
reng th
支 助</w>
已 经</w>
协 调</w>
po si
ay s</w>
e y</w>
a ir
m ost</w>
ex t</w>
g s</w>
a st
memb ers</w>
ac tion</w>
& #
recommen d
a k
&# 9
lob al</w>
as es</w>
leg al</w>
par ty</w>
b ec
指 出</w>
po li
p end
h ol
pl es</w>
with in</w>
provi ded</w>
relev ant</w>
ar ticle</w>
repres ent
m er
m ust</w>
j o
H uman</w>
reg ul
i ver
M in
C o
rel ated</w>
el ec
in ci
得 到</w>
l an
ad di
ati ves</w>
develop ing</w>
auth or
因 为</w>
讨 论</w>
b ased</w>
程 序</w>
Offic e</w>
s en
ti on
c ul
其 中</w>
doc u
预 算</w>
it ted</w>
program mes</w>
b il
5 0</w>
cap ac
小 组</w>
代表 团</w>
y ear</w>
A u
i on</w>
Spec ial</w>
ac hi
un d</w>
I I</w>
n ot
str ateg
achi ev
year s</w>
作 出</w>
ow n</w>
are as</w>
及 其</w>
man y</w>
获 得</w>
e t</w>
he alth</w>
199 9</w>
sub m
事 务</w>
com pl
n i
2 6</w>
p ul
工作 人员</w>
dec ision</w>
中 心</w>
po in
in ce</w>
a w
201 3</w>
d uring</w>
l ed</w>
peri od</w>
dis c
u ro
ati c</w>
sta ff</w>
ac k</w>
is e</w>
particul ar</w>
ne e
s es</w>
en viron
P e
sid ent</w>
k ed</w>
Or ganiz
一 步</w>
l im
st rength
educ ation</w>
2 7</w>
H e</w>
资 料</w>
con t
政 治</w>
ff e
意 见</w>
der ation</w>
一 项</w>
解 决</w>
c ar
m ed</w>
ou th</w>
be ing</w>
如 果</w>
l and</w>
n u
这 个</w>
d ate</w>
n er
2 8</w>
pers ons</w>
Dec ember</w>
非 洲</w>
on d</w>
处 理</w>
表 示</w>
&apos ;</w>
斯 坦</w>
h eld</w>
ic ations</w>
ot h</w>
派 团</w>
d o</w>
机 制</w>
特 派团</w>
s ch
d at
199 8</w>
培 训</w>
方 法</w>
poli tical</w>
i f</w>
C ha
E uro
in iti
spec if
a m</w>
D e
人 民</w>
条 约</w>
任 务</w>
g ress</w>
提 高</w>
s ing</w>
e i
m y</w>
w s</w>
ari at</w>
C .
polic y</w>
tra ining</w>
inte gr
19 8
第 二
A s</w>
v ing</w>
秘书 处</w>
di es</w>
ad v
sta in
se t</w>
r ul
进 一步</w>
1 5
y ing</w>
b el
Min is
protec tion</w>
oun d</w>
import ant</w>
2 9</w>
re view</w>
acc ord
par t</w>
cl u
olog y</w>
人 口</w>
t ors</w>
M ar
en c
adop ted</w>
li on</w>
S o
li f
e t
Pro gram
能 够</w>
ta in</w>
正 在</w>
p an
del eg
发展 中
wh en</w>
由 于</w>
6 0</w>
il y</w>
i ed</w>
disc us
ten tion</w>
A t</w>
wh ere</w>
effec tive</w>
s er
v ely</w>
v al
减 少</w>
说 明</w>
1 3
发展中 国家</w>
目 前</w>
平 等</w>
法 院</w>
m ul
Ad d
制 定</w>
reg ard</w>
follow ing</w>
c our
框 架</w>
g i
ec han
ma ke</w>
par ties</w>
capac ity</w>
T o</w>
u al</w>
评 估</w>
chan ge</w>
公 司</w>
方 式</w>
s .</w>
同 时</w>
利 用</w>
con tro
ar ly</w>
wor ld</w>
us ti
原 则</w>
4 0</w>
部 队</w>
s ev
contin ue</w>
accord ance</w>
h er</w>
B o
取 得</w>
标 准</w>
appro pri
ag end
Program me</w>
进 程</w>
Pre sident</w>
m an</w>
nec ess
con sul
co ordin
id enti
sit uation</w>
I C
requ est
fac il
it e</w>
Chin a</w>
tur al</w>
l at
w ay</w>
参 加</w>
确 定</w>
ou ra
g ed</w>
me di
commun ity</w>
ex am
ig n</w>
o p</w>
P er
调 查</w>
a im
Organiz ation</w>
c u
工作 组</w>
s aid</w>
歧 视</w>
b oth</w>
agend a</w>
D is
强 调</w>
in es</w>
acc ess</w>
am ong</w>
em ploy
它 们</w>
di rec
ow ever</w>
an ts</w>
F or
制 度</w>
犯 罪</w>
establish ed</w>
j ud
spec ial</w>
um an
com ple
wor k
i p
i d</w>
al y
b an
recommend ations</w>
以 便</w>
冲 突</w>
ta ined</w>
M ember</w>
L .
许 多</w>
ex pres
proc e
pro m
g lobal</w>
费 用</w>
办 法</w>
con s
ro le</w>
各 种</w>
v ari
un e</w>
pe ace</w>
buil ding</w>
1 8
B u
f am
stain able</w>
respec t</w>
c a
g re
i l</w>
t or
h el
repor ts</w>
会 员国</w>
or ity</w>
e ty</w>
ob jec
m u
Ar ticle</w>
id e</w>
in dic
m echan
pro bl
hi gh
范 围</w>
目 的</w>
缔约 方</w>
wor king</w>
be fore</w>
发 言</w>
b en
ci es</w>
文 化</w>
ac e
y our</w>
it em</w>
具 有</w>
en d</w>
中 国</w>
尼 亚</w>
ari an</w>
pro gress</w>
数 据</w>
ec u
适 当</w>
se e</w>
govern mental</w>
nu clear</w>
en g
t reat
su m
af ter</w>
办 事
Afric a</w>
techn ical</w>
th ree</w>
d es
J une</w>
s c
the re
pr inci
om ic</w>
ur al</w>
但 是</w>
vi l</w>
conf lic
必 要</w>
tin gs</w>
行 政</w>
O c
办事 处</w>
it ary</w>
di ffe
维 持</w>
res t</w>
s ame</w>
E con
i b
av ail
stan d
联 盟</w>
im p
ffic i
N ational</w>
责 任</w>
ag en
条 件</w>
分 析</w>
A mer
de pend
开 始</w>
ul y</w>
l l</w>
consul t
s s</w>
Amer ic
h igh</w>
消 除</w>
g rou
贸 易</w>
viol ence</w>
进 展</w>
P ol
pres ent</w>
按 照</w>
de red</w>
美 国</w>
暴 力</w>
h ar
gen der</w>
pr is
necess ary</w>
inv ol
ch ar
基 础</w>
me work</w>
dat a</w>
时 间</w>
Wor ld</w>
F e
kno w
咨 询</w>
机 会</w>
此 外</w>
is l
en ing</w>
ad ministr
appropri ate</w>
si a</w>
1 4
l ab
si bility</w>
en h
po pul
R eg
pl ace</w>
一 种</w>
con di
usti ce</w>
利 亚</w>
C O
设 立</w>
pri v
ag es</w>
r or
f ication</w>
I D
ba sis</w>
iver s
存 在</w>
司 法</w>
f oc
ass ess
bud get</w>
R ec
全 面</w>
L a
建 设</w>
im prov
不 同</w>
o l</w>
oc r
al e</w>
w at
ma j
Bo ard</w>
pos sible</w>
mar ke
institu tions</w>
iz ed</w>
各 项</w>
fu l</w>
而 且</w>
一 次</w>
im pl
ev er
ter min
ful l</w>
with out</w>
we ap
th er
Par ties</w>
pl ac
Econ omic</w>
er g
专 家</w>
f l
requi re
mon it
loc al</w>
crimin ation</w>
polic ies</w>
or ing</w>
自 由</w>
应 当</w>
c ases</w>
ver y</w>
h uman
grou ps</w>
mil lion</w>
c ase</w>
g iv
it ation</w>
N o
协 助</w>
el l
th ou
n ing</w>
it arian</w>
sel f</w>
e iv
承 诺</w>
So cial</w>
Afric an</w>
L e
人 道
at t
结 果</w>
wh ile</w>
C entr
1 7
tra de</w>
具 体</w>
G u
on g
pro mo
em p
正 式</w>
d a</w>
re duc
1 6
充 分</w>
u r</w>
an aly
st ud
qu es
ben ef
sup por
1 .
con duc
199 7</w>
造 成</w>
li ke</w>
ex is
part ment</w>
ep t
g eneral</w>
g o</w>
鼓 励</w>
vi du
自 己</w>
c er
t re
gro w
leg isl
o bl
regi on</w>
y p
st e
pr ac
mee tings</w>
接 受</w>
O n</w>
en ni
S outh</w>
J uly</w>
生 活</w>
fun c
做 法</w>
议 定
ma in</w>
prov isions</w>
v ic
发 生</w>
是 否</w>
rec og
o m</w>
议定 书</w>
fi ed</w>
re li
201 4</w>
性 别</w>
c all
义 务</w>
po w
艾 滋
e ach</w>
&apos; t</w>
ati s
n al</w>
希 望</w>
s ince</w>
obl ig
P al
2 .
nee ds</w>
n at
负 责</w>
o ff
投 资</w>
incre ase</w>
re ad
in ation</w>
are a</w>
家 庭</w>
vi e
监 测</w>
为 了</w>
F in
设 施</w>
成 为</w>
ot al</w>
ex per
includ e</w>
产 生</w>
comm it
in t</w>
t oc
h al
add res
indi vidu
enni um</w>
me th
协 定</w>
资 金</w>
specif ic</w>
r e</w>
M e
H e
d om
ke ep
6 3</w>
develop ed</w>
a ff
对 于</w>
anc ing</w>
l ine</w>
st ed</w>
a in</w>
最 后</w>
no w</w>
pre par
N ew</w>
tr ac
共 同</w>
D i
C our
avail able</w>
l evel
ch all
办 公
contro l</w>
W omen</w>
consi deration</w>
欢 迎</w>
th ir
形 式</w>
Euro pe
h en
wh at</w>
以 色
R es
enc oura
st ri
g roup</w>
事 项</w>
propos ed</w>
rec eiv
f ore
应 该</w>
受 到</w>
严 重</w>
gu id
imple men
第 三
安 排</w>
不 是</w>
fi eld</w>
ap pe
用 于</w>
accoun t</w>
阿 拉
am oun
ti c</w>
for c
s ol
地 方</w>
ke y</w>
le ad
ter m</w>
keep ing</w>
t ow
esti g
d es</w>
199 6</w>
up on</w>
concern ed</w>
涉 及</w>
Europe an</w>
a use</w>
T ra
su stainable</w>
n ed</w>
地 位</w>
fra mework</w>
soci ety</w>
变 化</w>
日 至</w>
ter ror
wh e
i ght</w>
, 000</w>
尤 其</w>
it al</w>
企 业</w>
continu ed</w>
ob serv
t en</w>
Is ra
air s</w>
ne l</w>
c c
prom ote</w>
in ess</w>
认 识</w>
Th ey</w>
改 革</w>
inv est
d y</w>
pers on
if ic
Th ere</w>
mil itary</w>
F or</w>
issu e</w>
S erv
A ra
pl an</w>
N ov
b r
chall en
巴 勒
es tin
恐 怖
iz ation</w>
b ro
5 7</w>
projec t</w>
sec tor</w>
port un
5 5</w>
D P</w>
第 十
6 1</w>
F und</w>
ear ch</w>
struc tion</w>
管 理
ta ble</w>
这 样</w>
level s</w>
Wor king</w>
import ance</w>
办公 室</w>
cur rent</w>
d ers</w>
si on
tic s</w>
com b
not ed</w>
pre hen
5 8</w>
这 方面</w>
当 局</w>
ful ly</w>
Pal estin
基 本</w>
Cour t</w>
consi dered</w>
6 5</w>
lar ation</w>
S ept
M ay</w>
particul arly</w>
报 告
de b
conflic t</w>
ac y</w>
ent ly</w>
to ber</w>
附 件</w>
Oc tober</w>
成 果</w>
for ce</w>
规 则</w>
gen cy</w>
并 且</w>
以色 列</w>
3 5</w>
s m
Nov ember</w>
谈 判</w>
vari ous</w>
Sept ember</w>
add ress</w>
lif e</w>
非 政府</w>
ex peri
ar ma
6 7</w>
批 准</w>
govern ment</w>
帮 助</w>
an g
h ow</w>
法 庭</w>
require ments</w>
I V</w>
难 民</w>
选 举</w>
al ia</w>
1 ;</w>
requi red</w>
业 务</w>
&#9 1;</w>
a ffec
d on
le d
su cc
La w</w>
i als</w>
挑 战</w>
chil d</w>
s a
ab il
6 4</w>
如 何</w>
ef u
com p
关 切</w>
以 下</w>
过 程</w>
de termin
human itarian</w>
sec u
particip ation</w>
se qu
oo k</w>
aliz ation</w>
jec t</w>
Secret ariat</w>
适 用</w>
利 益</w>
at ory</w>
deleg ation</w>
po ver
M I
l ong</w>
I m
op portun
h ou
b us
ci vil</w>
tro duc
stan ding</w>
5 9</w>
sign ific
一 切</w>
s ,</w>
ecu tive</w>
6 2</w>
现 在</w>
fu ture</w>
什 么</w>
bo dies</w>
o ve</w>
De partment</w>
oper ations</w>
人道 主义</w>
arma ment</w>
ne x</w>
199 5</w>
wat er</w>
4 5</w>
Ac tion</w>
pur pos
en ted</w>
- -</w>
C ri
国 内</w>
si de</w>
techn ology</w>
subm itted</w>
比 亚</w>
at ors</w>
完 成</w>
e f</w>
inv estig
prehen sive</w>
author ities</w>
19 7
pers on</w>
M on
l ess</w>
g ood</w>
posi tion</w>
sec ond</w>
mat er
ir e</w>
市 场</w>
condi tions</w>
com pe
优 先</w>
an u
宣 言</w>
报告 员</w>
i ally</w>
resolu tions</w>
例 如</w>
f re
R ev
状 况</w>
toc ol</w>
pover ty</w>
tu al</w>
高 级
4 8</w>
不 能</w>
5 3</w>
3 3</w>
de f
pl ann
v e
agen cies</w>
3 ;</w>
vis ory</w>
开 发
G en
&#9 3;</w>
ist an</w>
禁 止</w>
ex c
an t
5 1</w>
案 件</w>
5 2</w>
projec ts</w>
our ce</w>
M ission</w>
Un ion</w>
por te
介 绍</w>
v ed</w>
Mar ch</w>
c ha
m ember</w>
addi tion</w>
临 时</w>
个 人</w>
gen er
maj or</w>
se t
oo l</w>
改 善</w>
健 康</w>
5 4</w>
国 家
er ia</w>
采 用</w>
imp act</w>
en cy</w>
reg ar
en ces</w>
ol s</w>
监 督</w>
3 2</w>
重 申</w>
recog n
经 济
联合 国
n ote</w>
m ary</w>
6 6</w>
popul ation</w>
pro ve</w>
ap prov
oc c
at ely</w>
领 土</w>
t otal</w>
世 界
addi tional</w>
th em
3 7</w>
struc ture</w>
giv en</w>
ab ove</w>
ev al
know led
priv ate</w>
hal f</w>
表 明</w>
控 制</w>
5 6</w>
di d</w>
199 4</w>
评 价</w>
weap ons</w>
si an</w>
t ary</w>
person nel</w>
4 9</w>
3 4</w>
f o
hi m</w>
尽 管</w>
c an
m ission</w>
organiz ation</w>
联 合</w>
. 2</w>
S y
request ed</w>
pro f
立 法</w>
dis crimination</w>
mul ti
gen ous</w>
diffe rent</w>
s pe
社 区</w>
Govern ments</w>
经 费</w>
f y</w>
m ov
N or
两 年</w>
esti c</w>
sub stan
关 注</w>
w ays</w>
划 署</w>
R ap
polic e</w>
bec ause</w>
in e
re as
appro ach</w>
docu ment</w>
tow ards</w>
收 入</w>
H owever</w>
安 理
per form
3 6</w>
以 来</w>
现 有</w>
履 行</w>
pur su
me ans</w>
两 个</w>
仍 然</w>
巴勒 斯坦</w>
ear ly</w>
ta king</w>
ma king</w>
facil it
A ff
P l
安理 会</w>
限 制</w>
l s</w>
agre ed</w>
恐怖 主义</w>
vic ti
ex ten
保 障</w>
resul ts</w>
serv ice</w>
syst ems</w>
cont ext</w>
ess es</w>
ou s
A pri
Apri l</w>
qu ality</w>
aliz ed</w>
represent atives</w>
M an
防 止</w>
直 接</w>
独 立</w>
establish ment</w>
ace keeping</w>
at tention</w>
stat us</w>
erg y</w>
之 后</w>
as s</w>
sti ll</w>
c are</w>
t ar
de fin
一 般</w>
稳 定</w>
Rap porte
n er</w>
l in
ti al</w>
si c</w>
Pro tocol</w>
sh e</w>
生 产</w>
o ci
man date</w>
集 团</w>
ex pec
增 长</w>
op e</w>
in stru
H igh</w>
J anu
in du
银 行</w>
resul t</w>
f if
ref lec
conc ern</w>
i ous</w>
olog ical</w>
m ig
o d
man ent</w>
Janu ary</w>
ac tions</w>
4 7</w>
ocr atic</w>
si z
th ing</w>
出 现</w>
effec ti
l es</w>
fam ily</w>
ric ul
prac tic
打 击</w>
ci r
ac ts</w>
T A
这 项</w>
read y</w>
O n
dom estic</w>
form s</w>
Rapporte ur</w>
. 4</w>
ex pl
monit oring</w>
ne go
nego ti
综 合</w>
con tained</w>
Aff airs</w>
一 致</w>
t led</w>
3 9</w>
environ ment</w>
n ess</w>
bel i
协 商</w>
ev en</w>
requ est</w>
Bu t</w>
j ust</w>
is ms</w>
ris k</w>
co sts</w>
Cha ir
con stitu
V i
j ustice</w>
concern ing</w>
4 4</w>
es pec
ter rit
in depend
一 份</w>
之 前</w>
3 8</w>
土 著</w>
Dec laration</w>
n or
im prove</w>
pu t</w>
lo o
espec ially</w>
In di
employ ment</w>
dec id
原 因</w>
pa red</w>
form ation</w>
pl y</w>
b al
T r
受 害
abil ities</w>
incre ased</w>
积 极</w>
repor ting</w>
exis ting</w>
俄 罗
因 素</w>
pro per
or ies</w>
d ated</w>
v ol
m en</w>
com prehensive</w>
呼 吁</w>
an k</w>
du res</w>
p ubl
I f</w>
4 6</w>
ad equ
ac k
hel p</w>
空 间</w>
Al l</w>
rul es</w>
Re port</w>
res ent
coordin ation</w>
consi der</w>
1 00</w>
receiv ed</w>
qu ar
Pe o
sm all</w>
S up
同 意</w>
represent ative</w>
材 料</w>
du ce</w>
thir d</w>
风 险</w>
4 2</w>
论 坛</w>
最 近</w>
伊 拉
纳 入</w>
rel ating</w>
专 员</w>
201 5</w>
g ing</w>
strength en</w>
m un
伙 伴</w>
r y</w>
legisl ation</w>
v il
准 则</w>
内 容</w>
grow th</w>
sp ace</w>
a z
军 事</w>
efu l</w>
prov ision</w>
4 1</w>
需 求</w>
制 订</w>
m it</w>
whe ther</w>
6 8</w>
ti m
enti al</w>
请 求</w>
Th ese</w>
sec ret
in ten
针 对</w>
con ven
结 构</w>
al og
无 法</w>
联 系</w>
规 划</w>
crimin al</w>
col lec
thou gh</w>
采 取
appl ication</w>
审 计</w>
it er
res earch</w>
environ mental</w>
do es</w>
u t
er ing</w>
marke t</w>
stat ement</w>
impl ement</w>
stand ards</w>
sign ed</w>
T er
n ers</w>
ti ves</w>
ag ed</w>
ar ran
iz e</w>
ep t</w>
f ood</w>
Ex ecutive</w>
li ght</w>
proce dures</w>
c ost</w>
go ing</w>
199 3</w>
mechan isms</w>
th s</w>
s k
那 些</w>
se e
t el
ar med</w>
Su b
收 到</w>
联 邦</w>
du e</w>
人 们</w>
g reat
Rep resent
指 导</w>
某 些</w>
respon sibility</w>
or ation</w>
扩 大</w>
Ara b</w>
produc tion</w>
广 泛</w>
I ra
ov e
in troduc
trans f
mis sions</w>
fun ds</w>
I O
核 武器</w>
com es</w>
定 期</w>
威 胁</w>
4 3</w>
amoun t</w>
includ ed</w>
practic es</w>
第 一
bus iness</w>
princi ples</w>
expres sed</w>
n ation
Di rec
对 话</w>
员 额</w>
推 动</w>
遵 守</w>
W ith</w>
us ing</w>
ques tion</w>
incre as
M al
evel op</w>
p at
虽 然</w>
ta in
esti m
treat ment</w>
UN C
k in
群 体</w>
Ad ministr
ter ms</w>
基 金
欧 洲
D em
实 际</w>
there fore</w>
anc ed</w>
in ter</w>
p ap
违 反</w>
承 认</w>
f a
e ffici
enti tled</w>
id ence</w>
s ci
equ ip
g l
协 议</w>
结 束</w>
c ent
j u
Y ou</w>
C N
administr ative</w>
警 察</w>
b ru
No .</w>
pr acti
条 款</w>
b un
ro ss</w>
阶 段</w>
Ch il
欧 洲</w>
人 类</w>
pos ed</w>
o di
非 法</w>
预 防</w>
侵 犯</w>
导 致</w>
Ac t</w>
了 解</w>
v ity</w>
is ts</w>
sev eral</w>
然 而</w>
equ ality</w>
财 政</w>
' s</w>
保 健</w>
全 国</w>
该 国</w>
ffic king</w>
知 识</w>
si x
r ate</w>
I N
裁 军</w>
I II</w>
Minis try</w>
challen ges</w>
ci vil
发 挥</w>
probl ems</w>
就 是</w>
第 四
pre vi
v o
sub ject</w>
保 证</w>
ra is
发 达
t al
respon se</w>
regar ding</w>
观 察
at or</w>
oblig ations</w>
provi ding</w>
ffic ul
下 列</w>
agre ement</w>
伊拉 克</w>
th ers</w>
re fu
rec ent</w>
en th</w>
comm on</w>
T ri
pos t</w>
pre v
ish ed</w>
事 件</w>
l ast</w>
fore ign</w>
面 临</w>
assess ment</w>
alog ue</w>
伙 伴
cl os
E S
上 述</w>
om e
cl aim
di fficul
ol d</w>
发达 国家</w>
a ve</w>
民 主
f ree</w>
UN DP</w>
人 民
Americ a</w>
危 机</w>
Au g
re tur
call ed</w>
Th at</w>
us es</w>
t le
de ta
ov en
o f
in come</w>
addres sed</w>
ass oci
g ir
d evelop</w>
成 功</w>
S he</w>
er c
er ation</w>
程 度</w>
contribu tions</w>
重 点</w>
rul e</w>
cul tural</w>
r ati
bet ter</w>
cur ren
ri ed</w>
repor ted</w>
occ up
str ic
成 员国</w>
伙伴 关系</w>
provi des</w>
Ad visory</w>
b ia</w>
7 0</w>
fre ed
R us
su g
开 发</w>
aff ir
ar ms</w>
Fe bru
dec isions</w>
Aug ust</w>
s olu
fac t</w>
Palestin ian</w>
strength ening</w>
6 9</w>
fi ve</w>
st ar
西 亚</w>
rec or
stud y</w>
Febru ary</w>
ous ly</w>
结 论</w>
网 络</w>
ed ure</w>
adop tion</w>
exam ple</w>
从 而</w>
过 去</w>
signific ant</w>
en ter
l ack</w>
en ergy</w>
n am
s ex
ic s</w>
w ard</w>
运 动</w>
be g
A b
indi genous</w>
多 数</w>
符 合</w>
di t</w>
tr an
长 期</w>
jud ic
加 入</w>
er red</w>
科 学</w>
refu ge
decid ed</w>
c entr
环 境
2 8
明 确</w>
种 族
选 择</w>
记 录</w>
strateg y</w>
plann ing</w>
千 年</w>
确 认</w>
J o
S um
mu ch</w>
r ation</w>
an d
secret ariat</w>
invest ment</w>
regul ar</w>
clu sion</w>
ne t
行 动
总 统</w>
ar an
之 一</w>
一 级</w>
改 进</w>
f our</w>
m or
r ac
gra ph
b er
analy sis</w>
c ris
L ib
或 者</w>
公 共
病 毒</w>
ner ship</w>
产 品</w>
he ad
ge ther</w>
le ast</w>
victi ms</w>
T reat
reg is
H C
p ay
b an</w>
应 对</w>
一 直</w>
consult ations</w>
al ready</w>
我 国</w>
非 常</w>
is sion
所 述</w>
con nec
S a
terror ism</w>
b ur
ac tive</w>
St at
lar ge</w>
t yp
pre vention</w>
equip ment</w>
lan ds</w>
R C</w>
establ ish</w>
e p</w>
m ight</w>
P an
b est</w>
plac ed</w>
adequ ate</w>
w w
知 道</w>
重 新</w>
经 验</w>
perform ance</w>
po ten
d own</w>
en s</w>
lan gu
E ast</w>
回 顾</w>
w ar
就 业</w>
助 于</w>
S e
本 国</w>
emp ha
b ri
d ru
integr ation</w>
局 势</w>
el ines</w>
公 民</w>
re form</w>
a ren
gi ve</w>
beli ev
3 .
文 书</w>
编 写</w>
initi atives</w>
men d
te red</w>
w ide</w>
fol low</w>
设 备</w>
commit ment</w>
pa ren
or ities</w>
刑 事</w>
贩 运</w>
旨 在</w>
t ent</w>
ex plo
dis armament</w>
As s
con clud
st ate</w>
年 度</w>
3 0
sur ing</w>
Serv ice</w>
pe acekeeping</w>
宪 法</w>
t ook</w>
knowled ge</w>
ten ce</w>
practi ce</w>
第 五
bec ome</w>
7 7</w>
法 官</w>
残 疾
有 人</w>
par a</w>
docu ments</w>
pow er</w>
倡 议</w>
普 遍</w>
当 地</w>
整 个</w>
c am
基 于</w>
d a
e th
poin t</w>
ai m</w>
u res</w>
ex erc
sig n</w>
境 内</w>
si onal</w>
贡 献</w>
ec hn
l ing</w>
fe ty</w>
tra di
vie ws</w>
to gether</w>
学 校</w>
tran si
民 主</w>
A p
社 会
sh or
土 地</w>
kno w</w>
国际 法</w>
J ap
cor por
内 部</w>
合 同</w>
A sia</w>
设 计</w>
Ch ar
a bl
b re
落 实</w>
来 自</w>
cer tain</w>
C ol
安 全
扩 散</w>
b it
Wh ile</w>
有 助于</w>
基金 会</w>
Represent ative</w>
p e</w>
实 体</w>
foc us</w>
cri me</w>
di alogue</w>
for ces</w>
An d</w>
t le</w>
O b
2 9
tra fficking</w>
武 装
our th</w>
更 加</w>
ann ual</w>
mat ters</w>
ta ining</w>
人 数</w>
要 性</w>
s ha
E F</w>
th en</w>
ti z
C or
organiz ed</w>
probl em</w>
le ar
O p
恢 复</w>
s af
nee ded</w>
In formation</w>
la ws</w>
t ation</w>
Chin ese</w>
re at</w>
n ext</w>
h ear
受害 者</w>
inte re
城 市</w>
ever y</w>
H IV</w>
计 划署</w>
编 制</w>
完 全</w>
con trac
艾滋 病</w>
公 共</w>
bo dy</w>
o ds</w>
ra ft</w>
an nex</w>
respon sible</w>
w it
经 常</w>
199 0</w>
会 议
部 长</w>
女 士</w>
acc or
ter n
al low
in c
le t
不 断</w>
be half</w>
request s</w>
om s</w>
mee t</w>
st ep
auth or</w>
Centr al</w>
Centr e</w>
an other</w>
指 标</w>
wor ks</w>
chan ges</w>
ID S</w>
官 员</w>
水 平</w>
fun ding</w>
工 具</w>
C u
这 是</w>
给 予</w>
shi ps</w>
proper ty</w>
ic ally</w>
列 入</w>
sec tion</w>
星 期
prev ent</w>
pri ority</w>
pap er</w>
quar ters</w>
our s</w>
promo tion</w>
只 有</w>
O ther</w>
effec t</w>
保 留</w>
质 量</w>
Comm ission
人 权
Ira q</w>
拘 留</w>
ba sic</w>
d ates</w>
m ing</w>
E R
4 .
as k</w>
en forc
cl im
viol ations</w>
总 部</w>
li a
er ship</w>
S i
peo ples</w>
ge ments</w>
as pec
pl ans</w>
M s.</w>
bi ennium</w>
reduc tion</w>
de l</w>
Isra el</w>
of ten</w>
做 出</w>
inte rest</w>
dis tribu
时 候</w>
offic e</w>
v ision</w>
管 制</w>
individu al</w>
p ast</w>
oun d
en ed</w>
jo int</w>
bun al</w>
aren ess</w>
M o
T echn
mat ter</w>
w a
ar s</w>
Add .
oo ds</w>
promo ting</w>
酷 刑</w>
举 办</w>
现 象</w>
oper ational</w>
Dem ocratic</w>
j ur
achiev e</w>
尊 重</w>
com pan
ven ess</w>
r up
proc edure</w>
后 续</w>
f ound</w>
bud ge
E C
strateg ies</w>
ticl es</w>
val ue</w>
sex ual</w>
法 律
重 大</w>
h owever</w>
民 间</w>
规 模</w>
C an
A IDS</w>
资 产</w>
日 本</w>
Add .1</w>
or ig
strateg ic</w>
st re
part ners</w>
ser ious</w>
p ed</w>
协 会</w>
ol e</w>
同 样</w>
宗 教</w>
In stitu
不 会</w>
ne t</w>
宣 传</w>
econom y</w>
agre ements</w>
sch ool</w>
专 业</w>
D iv
美 洲</w>
eval uation</w>
7 3</w>
por ts</w>
1 2
pre ci
贫 穷</w>
声 明</w>
p ing</w>
大 学</w>
民 族</w>
do m</w>
享 有</w>
th ern</w>
t em
Direc tor</w>
not es</w>
suppor ted</w>
b ack</w>
pend it
treat y</w>
cu st
un ivers
8 0</w>
反 映</w>
princi ple</w>
offic ial</w>
recommen ded</w>
手 段</w>
a k</w>
缺 乏</w>
T ur
On e</w>
达 到</w>
we e
伊 斯
aw areness</w>
expec ted</w>
C oven
aran te
Comm un
艾滋 病毒</w>
d en</w>
199 2</w>
调 整</w>
affec ted</w>
Peo ple</w>
行动 计划</w>
M a
未 来</w>
拥 有</w>
re ment</w>
an ces</w>
me d
提 议</w>
阿拉 伯</w>
stat ements</w>
implemen ting</w>
un d
ul ation</w>
分 配</w>
gre at</w>
支 付</w>
保 持</w>
approv ed</w>
研 究
准 备</w>
构 成</w>
t es</w>
all ing</w>
o s</w>
A gen
enh ance</w>
st u
E P</w>
ing ly</w>
se ts</w>
conduc t</w>
con struction</w>
li ving</w>
ap poin
discus sion</w>
poten tial</w>
p tion</w>
y s
on d
commun ication</w>
consi der
step s</w>
stitu tion</w>
previ ous</w>
5 0
d ays</w>
1 ,
invol ved</w>
i tion</w>
Q u
B ank</w>
vi a</w>
com ing</w>
中 国
great er</w>
th in
一 名</w>
发 现</w>
f ace</w>
A n</w>
A m
马 里</w>
农 业</w>
compl ain
o ff</w>
aim ed</w>
ar ing</w>
Div ision</w>
x im
il ed</w>
解 释</w>
mechan ism</w>
b ed</w>
objec tives</w>
组 成</w>
统 计</w>
协 调
l ist</w>
M ill
ex change</w>
en n
Commission er</w>
行 政
非 正式</w>
I S
gir ls</w>
instru ments</w>
Treat y</w>
z er
B el
iz ing</w>
gro und</w>
Coven ant</w>
议 会</w>
通 知</w>
or g</w>
purpos e</w>
car ried</w>
v ul
Minis ter</w>
es ,</w>
提 到</w>
de ploy
H is</w>
gu arante
卫 生
c e
r ural</w>
pen s
implemen ted</w>
facilit ate</w>
理 由</w>
授 权</w>
nat ural</w>
S ud
达 成</w>
work ers</w>
应 用</w>
5 00</w>
el im
d le</w>
S tr
C A
T a
y a</w>
残疾 人</w>
po sts</w>
su ffici
lim ited</w>
comm itted</w>
金 融
每 个</w>
条 例</w>
基 础
为 此</w>
cris is</w>
反 对</w>
facil ities</w>
信 息
commun ities</w>
clim ate</w>
阿 富
D uring</w>
nat ure</w>
ig n
学 生</w>
ess ential</w>
i gh
compl i
生 产
enti f
委 会</w>
能 源</w>
col lab
op en</w>
hol d</w>
苏 丹</w>
em er
lat eral</w>
ev a</w>
offic es</w>
20 0</w>
Rus sian</w>
职 能</w>
ci tiz
equ al</w>
Im ple
Co ordin
w an
实 行</w>
ad a</w>
拟 议</w>
re ma
允 许</w>
在 内</w>
E N
o t</w>
万 美元</w>
满 足</w>
K ore
d ev
下 午</w>
under standing</w>
stan ces</w>
isi onal</w>
an ti
卫 生</w>
支 出</w>
issu ed</w>
G er
E m
y ,</w>
Man agement</w>
G lobal</w>
成 立</w>
vul ner
签 署</w>
199 1</w>
Mill ennium</w>
加 拿
带 来</w>
res erv
财 务</w>
opportun ities</w>
in f
补 充</w>
su s</w>
s ome
oun g</w>
str y</w>
arran gements</w>
生 物</w>
hol ders</w>
采 购</w>
Un ivers
各 方</w>
vie w
出 口</w>
显 示</w>
tion ed</w>
若 干</w>
合 作
en suring</w>
Tra de</w>
st atis
offic ials</w>
f ail
9 0</w>
关 键</w>
UN O
Per manent</w>
证 明</w>
进 入</w>
spec i
日 内
s al
tec tion</w>
有 权</w>
阿富 汗</w>
increas ing</w>
贸 易
c um
exper ts</w>
propos als</w>
G o
high er</w>
O per
st er</w>
Tri bunal</w>
fun da
ass ist</w>
m .</w>
Agen da</w>
tr ic
ach ed</w>
里 亚</w>
Chair man</w>
fin ancing</w>
价 值</w>
i or</w>
传 统</w>
in fra
experi ence</w>
宣 布</w>
ne w
拟 订</w>
ag ricul
st ated</w>
毒 品</w>
提 案</w>
森 林</w>
o graph
ap preci
技 术
inform ed</w>
la w
entif ic</w>
o thers</w>
Af gh
Cri min
访 问</w>
数 量</w>
ex pendit
c en
u ations</w>
il i
for ward</w>
func tions</w>
危 险</w>
proc esses</w>
Gen eva</w>
Jap an</w>
. .
ra ph
Rev i
ad or</w>
申 请</w>
des cri
En viron
f ar</w>
recommend ation</w>
dis ast
共 同
mon ths</w>
protec t</w>
y et</w>
观察 员</w>
i de
th us</w>
Fe deration</w>
题 为</w>
Me e
第二 十
A T
7 5</w>
er r
C C
I T
权 力</w>
char ac
运 输</w>
效 率</w>
气 候
individu als</w>
A gre
fl u
benef its</w>
第 五</w>
U S</w>
guid elines</w>
pre pared</w>
Pan el</w>
medi a</w>
con tr
黎 巴
independ ent</w>
ti l</w>
cour se</w>
go als</w>
纲 领</w>
olog ies</w>
ti mes</w>
感 到</w>
Crimin al</w>
移 徙</w>
Americ an</w>
重 要性</w>
vol un
judic ial</w>
加拿 大</w>
dra w
e .</w>
accor ding</w>
改 变</w>
work sh
aspec ts</w>
IC EF</w>
under taken</w>
succ ess
青 年</w>
co oper
if ic</w>
d en
raph s</w>
Co operation</w>
如 下</w>
over all</w>
今 后</w>
Pl an</w>
十 年</w>
pres ented</w>
b a</w>
Ter rit
修 订</w>
at h</w>
王 国</w>
登 记</w>
in st
还 有</w>
tar ge
宪 章</w>
Wh at</w>
K ing
an ia</w>
Isra el
contribu te</w>
feren ces</w>
Euro pe</w>
Revi ew</w>
compe ti
tu res</w>
Imple mentation</w>
首 脑
机 关</w>
pl ay</w>
le ase</w>
地 点</w>
re main
黎巴 嫩</w>
tra v
印 度</w>
S ome</w>
. m.</w>
领 导</w>
y s</w>
transf er</w>
多 边</w>
F ore
团 体</w>
op s</w>
se par
lab our</w>
阿拉 伯
敦 促</w>
i ans</w>
答 复</w>
or gan
0 .
大 量</w>
来 源</w>
估 计</w>
Per s
干 事</w>
尚 未</w>
首脑 会议</w>
med ical</w>
一 部分</w>
以 上</w>
自 愿</w>
sa fety</w>
Le ban
一 起</w>
en jo
la un
增 强</w>
at ten
Reg i
W e
author ity</w>
步 骤</w>
P R
移 民</w>
ev idence</w>
女 性</w>
pro secu
常 驻</w>
c al
部 署</w>
Sup port</w>
困 难</w>
第 六</w>
N o</w>
prof es
curren tly</w>
si x</w>
al loc
po l
ist ent</w>
conduc ted</w>
F r
气候 变化</w>
h ist
通 信</w>
funda mental</w>
at eral</w>
administr ation</w>
appl ic
compli ance</w>
意 义</w>
propos al</w>
deleg ations</w>
pursu ant</w>
超 过</w>
还 是</w>
Y or
sel ec
UN EP</w>
罪 行</w>
ar ticles</w>
al ities</w>
Th e
收 集</w>
a u</w>
P .
lif eration</w>
ha ving</w>
不 过</w>
财 产</w>
ar ound</w>
integr ated</w>
U N</w>
鉴 于</w>
ment ary</w>
al leg
主 任</w>
大 多数</w>
can not</w>
negoti ations</w>
es .</w>
Sud an</w>
King dom</w>
regi ons</w>
i i</w>
ish ment</w>
事 务
y oung</w>
mater ial</w>
J ustice</w>
He ad
recommen ds</w>
5 .
商 定</w>
re vis
E duc
en able</w>
ch em
cour t</w>
di ver
it ems</w>
freed om</w>
A gency</w>
Char ter</w>
属 于</w>
im medi
man ner</w>
而 言</w>
pre ven
sch o
w ish</w>
证 据</w>
commun ications</w>
opportun ity</w>
阿 尔
核 心</w>
re duce</w>
7 2</w>
法 国</w>
d ro
Yor k</w>
com pon
exerc ise</w>
起 来</w>
高级 专员</w>
Wh en</w>
g ent</w>
cl ose</w>
re main</w>
res ource</w>
recogn ized</w>
亚 洲</w>
流 离
流离 失
bel ow</w>
sit e</w>
P r
c ateg
sem in
A N
form er</w>
cir cum
pri mary</w>
acc ep
ti li
sta ke
ari es</w>
欧洲 联盟</w>
有 些</w>
un til</w>
l u
非 洲
最 大</w>
担 任</w>
commit ments</w>
produc ts</w>
concern s</w>
contribu tion</w>
ex pan
infra structure</w>
传 播</w>
comm ittee</w>
del iver
p un
Regi onal</w>
i qu
体 制</w>
direc t</w>
si bil
外 国</w>
ch ed</w>
remain s</w>
Israel i</w>
专 门</w>
6 .
inter nal</w>
indu stri
l am
模 式</w>
基础 设施</w>
感 谢</w>
加 以</w>
identi fied</w>
P ac
农 村</w>
set tle
in al</w>
从 事</w>
F i
亿 美元</w>
流离失 所</w>
For um</w>
R ul
P A</w>
避 免</w>
effec ts</w>
ri v
jur is
enti ties</w>
el l</w>
w ar</w>
re ference</w>
te ach
数 据
h ere</w>
一 般
dru g</w>
g ran
lar g
rou ght</w>
C E
de tention</w>
cap ital</w>
自 然
一 样</w>
金 融</w>
d one</w>
posi tive</w>
cri mes</w>
再 次</w>
比 例</w>
S h
每 年</w>
prepar ation</w>
日内 瓦</w>
召 开</w>
B ra
il ies</w>
损 失</w>
赔 偿</w>
empha siz
更 好</w>
refuge es</w>
t ext</w>
rel ation
re stric
依 照</w>
multi lateral</w>
多 样
con ference</w>
Un der</w>
Mee ting</w>
领 导
offic ers</w>
regul ations</w>
交 流</w>
r an</w>
ques tions</w>
N e
核 准</w>
武 装</w>
治 疗</w>
债 务</w>
0 0
is sions</w>
to o</w>
UN ICEF</w>
enforc ement</w>
检 察
comp any</w>
subm it</w>
a ir</w>
sibil ities</w>
f ri
r ates</w>
维 亚</w>
UNC TA
ma k
sh ow
L eg
政 治
id dle</w>
统 一</w>
Str ateg
men tioned</w>
al ways</w>
公 平</w>
任 命</w>
N G
古 巴</w>
w id
ref erred</w>
n ov
第 二</w>
Pac ific</w>
ur ban</w>
c all</w>
予 以</w>
寻 求</w>
tor al</w>
P ublic</w>
connec tion</w>
out come</w>
主 义
UNCTA D</w>
d am
rec ei
工 业</w>
effecti vely</w>
gh out</w>
7 4</w>
ses sions</w>
mater ials</w>
fe w</w>
另 外</w>
服 务
en ty</w>
成 本</w>
此 类</w>
单 位</w>
parag raphs</w>
依 据</w>
第 六
Co de</w>
wh ole</w>
C am
来 说</w>
贸 发</w>
sh are</w>
diffe ren
ten ance</w>
l it
ph ys
st ra
高 级</w>
form al</w>
con sequ
t ory</w>
all s</w>
Kore a</w>
粮 食</w>
de sign</w>
特 殊</w>
si mil
Indi a</w>
institu tional</w>
全 球
ach es</w>
运 作</w>
创 造</w>
灾 害</w>
S A
化 学
inform al</w>
fin al</w>
媒 体</w>
suffici ent</w>
障 碍</w>
con sum
com pens
三 个</w>
Sy ri
Pro tection</w>
p ay</w>
achiev ed</w>
维 护</w>
mo d
le ad</w>
al i
pl ay
Can ada</w>
u es</w>
str ong</w>
课 程</w>
introduc ed</w>
举 措</w>
improv ing</w>
Institu te</w>
d ly</w>
d ol
Sum mit</w>
ag ain</w>
meth ods</w>
Agre ement</w>
Ac cor
govern ance</w>
N on</w>
最 佳</w>
主 题</w>
西 班
P h
实 质
S ince</w>
man ag
pro hi
He alth</w>
al tern
is ted</w>
新 闻</w>
7 6</w>
系 列</w>
执 行
te am</w>
purpos es</w>
ac eful</w>
dem on
particip ate</w>
UN F
平 民</w>
磋 商</w>
外 交
p ite</w>
br ing</w>
ac qu
Un it</w>
t i</w>
7 1</w>
claim s</w>
G e
En gl
ch o
很 多</w>
战 争</w>
重 视</w>
司 法
e an</w>
趋 势</w>
Pol i
Tr ans
俄罗 斯</w>
T H
sup pl
indic ated</w>
两 性</w>
al low</w>
性 质</w>
cri tical</w>
h os
澳 大
S er
sel ves</w>
on going</w>
benef it</w>
顾 问</w>
纽 约</w>
医 疗</w>
解 决
R el
po or</w>
i m</w>
reli gi
R equ
Au str
retur n</w>
w rit
substan tive</w>
B ur
re ly</w>
st res
联合 王国</w>
e ,</w>
ran ge</w>
迅 速</w>
dis abilities</w>
德 国</w>
ur ther
por ary</w>
专 家
kin d</w>
f ourth</w>
s ou
实质 性</w>
op in
如 此</w>
territ ory</w>
开发 计划署</w>
min im
prov isional</w>
ter nal</w>
承 担</w>
v ote</w>
demon str
指 控</w>
objec tive</w>
Engl ish</w>
intere sts</w>
3 00</w>
Cri me</w>
墨 西
俄罗 斯
h ours</w>
预 期</w>
发 表</w>
ic o</w>
c ed</w>
遭 受</w>
effecti veness</w>
索 赔</w>
ne g
eth n
捐 助</w>
公 开</w>
as sets</w>
概 念</w>
Con go</w>
throu ghout</w>
p aid</w>
c as
f av
h o
el s</w>
th reat
deb t</w>
ta bility</w>
家 庭
A .</w>
Sec tion</w>
bal ance</w>
let ter</w>
定 义</w>
inter pre
h on
高级 别</w>
p ter</w>
g a
li k
ro ad</w>
预 防
de ath</w>
F ir
langu age</w>
direc tly</w>
h ome</w>
今 天</w>
观 点</w>
cent res</w>
开发 署</w>
第 一</w>
comm er
In v
Poli tical</w>
Ex per
thin k</w>
加 勒
一 点</w>
Is lam
越 来
转 让</w>
s atis
住 房</w>
年 人</w>
讲 习
rel ations</w>
st em</w>
av o
背 景</w>
fam ilies</w>
ed ings</w>
体 系</w>
bro ad
circum stances</w>
li gh
odi c</w>
w ant</w>
私 营
meth od</w>
立 即</w>
acti vity</w>
rec ru
Su ch</w>
dic tion</w>
B a
与 会
职 位</w>
mon ey</w>
it able</w>
stake holders</w>
st oc
par ts</w>
sur ance</w>
Par ty</w>
刑 事
K u
effor t</w>
I A
guid ance</w>
y .</w>
S om
Con stitution</w>
紧 急</w>
As soci
el ements</w>
g res
捐 款</w>
il s</w>
公 众</w>
贫 困</w>
英 语</w>
it self</w>
d ings</w>
待 遇</w>
rel ation</w>
ill s</w>
新 闻
produc tive</w>
ser ve</w>
邀 请</w>
Fore ign</w>
re al</w>
民主 共和国</w>
国际 公约</w>
mo del</w>
scho ols</w>
requ ire</w>
exper t</w>
行 使</w>
au t
M ex
pris es</w>
inter governmental</w>
通 常</w>
印 度
C O</w>
estim ated</w>
不 仅</w>
A l</w>
si m
com ed</w>
a h</w>
占 领</w>
reg im
particip ants</w>
辩 论</w>
he ad</w>
c y
rup tion</w>
Serv ices</w>
引 起</w>
l d
civil ian</w>
sec tors</w>
t ren
一般 性</w>
sc ale</w>
to day</w>
精 神</w>
a ver
p ass
讲习 班</w>
fin d</w>
生 效</w>
B y</w>
专 门
sit uations</w>
revis ed</w>
techn ologies</w>
centr al</w>
s ources</w>
wel comed</w>
main tenance</w>
compan ies</w>
f il
7 8</w>
difficul t</w>
discus sions</w>
adv ant
de sign
C i
fif ty</w>
价 格</w>
over y</w>
ab s
学 习</w>
身 份</w>
de al
sc ope</w>
l ong
d on</w>
lo g
Accor ding</w>
以 前</w>
poin ts</w>
M or
工 人</w>
b ar
proce edings</w>
最 终</w>
u g
re ach</w>
buil d</w>
预 计</w>
at ure</w>
妇 女
ove red</w>
公 正</w>
ti vely</w>
trans port</w>
主 管</w>
决 策</w>
起 诉</w>
includ es</w>
F if
sen sus</w>
trav el</w>
comb at</w>
计 算</w>
tor ture</w>
药 物</w>
索 马里</w>
Afgh an
s ing
g oods</w>
专 题</w>
反 应</w>
良 好</w>
越来 越</w>
比 较</w>
Chil dren</w>
For ce</w>
as h
7 .
专家 组</w>
她 们</w>
清 单</w>
indic ators</w>
几 个</w>
distribu tion</w>
An nex</w>
comple te</w>
澳大 利亚</w>
fun d</w>
tu ally</w>
indu stry</w>
D A
n on
Go als</w>
be an</w>
Fr ance</w>
至 少</w>
er y</w>
dis e
collab oration</w>
A t
k a</w>
8 7</w>
form ul
cre ate</w>
十 分</w>
syst em
s ity</w>
mig ration</w>
与会 者</w>
B e
ha p
采取 行动</w>
si ght</w>
respec tive</w>
海 洋</w>
w ast
分 别</w>
及 时</w>
Bra z
ari b
pri orities</w>
Administr ative</w>
其 它</w>
Environ ment</w>
ol id
L i
土 耳
上 诉</w>
任 择</w>
lit tle</w>
appl y</w>
fac tors</w>
律 师</w>
appl ied</w>
f em
dem and</w>
各 级</w>
improv ed</w>
物 质</w>
商 业</w>
ed ul
on es</w>
initi ative</w>
in d
4 0
re view
c ore</w>
7 9</w>
deliver y</w>
st ability</w>
Afghan istan</w>
虐 待</w>
I P
首 先</w>
legisl ative</w>
h y
effici ency</w>
ou gh</w>
详 细</w>
pr ise</w>
人权 委员会</w>
语 言</w>
ati es</w>
少 数</w>
UN HC
检 查</w>
ill ed</w>
Islam ic</w>
T o
双 方</w>
ish ing</w>
Al so</w>
私营 部门</w>
pe aceful</w>
achiev ing</w>
E S</w>
巴 西</w>
墨西 哥</w>
c ro
卢 旺
c o</w>
S ci
oo m</w>
劳 动
看 到</w>
respon sibilities</w>
C arib
univers al</w>
stud ents</w>
re iter
me t</w>
所 作</w>
ra ther</w>
资 助</w>
ev ents</w>
sug ge
不 得</w>
居 民</w>
stand ard</w>
ab use</w>
理 解</w>
tradi tional</w>
训 练</w>
太 平
日 期</w>
ic a</w>
筹 备</w>
out side</w>
en ary</w>
出 席</w>
U S
est s</w>
es ting</w>
当 前</w>
volun tary</w>
a bly</w>
致 力
损 害</w>
破 坏</w>
b or
sup ply</w>
C y
P ri
财 务
一 定</w>
O F</w>
associ ated</w>
UNHC R</w>
Carib bean</w>
wh ose</w>
诉 讼</w>
Fir st</w>
侵 害</w>
ar bit
urther more</w>
赞 赏</w>
卢旺 达</w>
develop ments</w>
pri or</w>
此 种</w>
tili z
simil ar</w>
数 字</w>
政 府
pro liferation</w>
降 低</w>
continu es</w>
探 讨</w>
n ever</w>
in a</w>
工 程
s pen
难 民
ti fication</w>
pris on
Educ ation</w>
ethn ic</w>
G re
su per
c ru
Rec alling</w>
交 易</w>
f ying</w>
or i
net work</w>
D C</w>
phys ical</w>
es sion</w>
A g
只 是</w>
ac ross</w>
R A
min d</w>
职 业</w>
speci alized</w>
Ci vil</w>
至 关
数 额</w>
基 本
or ial</w>
t on</w>
addres sing</w>
lic it</w>
审 判</w>
致力 于</w>
vulner able</w>
s po
Univers ity</w>
事 实</w>
cul ture</w>
u te</w>
才 能</w>
地 雷</w>
cl aim</w>
会议 室</w>
them selves</w>
t op
av ing</w>
类 似</w>
peri odic</w>
h er
特 定</w>
俄罗斯 联邦</w>
网 站</w>
一 年</w>
指 定</w>
Th ir
s pon
上 午</w>
as ked</w>
h and</w>
continu ing</w>
elec tr
contr act</w>
religi ous</w>
巴 基
筹 资</w>
Ger many</w>
elec tions</w>
Pe ace</w>
I ran</w>
h ic
所 以</w>
R om
on ce</w>
b order</w>
posi tions</w>
科 威
ei ther</w>
提 供
suppor ting</w>
viol ation</w>
cam pa
历 史</w>
S en
call s</w>
sub sequ
CN .
transi tion</w>
所 涉</w>
citiz ens</w>
identi fy</w>
死 亡</w>
至关 重要</w>
ei gh
F A
&apos; m</w>
Mex ico</w>
名 单</w>
investig ation</w>
除 了</w>
Cu ba</w>
s an
b rought</w>
encoura ge</w>
ex tent</w>
inci d
cons istent</w>
外 地</w>
dis pu
Head quarters</w>
s on</w>
s ay</w>
establish ing</w>
刚 果
tain s</w>
prac tical</w>
low er</w>
com ments</w>
最 高</w>
loo k</w>
职 责</w>
d ou
孩 子</w>
is ting</w>
Jo int</w>
工作 队</w>
in ary</w>
L ab
B ud
b ir
ot ed</w>
M y</w>
is tic</w>
res ol
discus sed</w>
Syri an</w>
on ic</w>
8 3</w>
研究 所</w>
econom ies</w>
一 系列</w>
emer gency</w>
if ication</w>
Su stainable</w>
ove re
P ak
福 利</w>
st and</w>
ever y
8 5</w>
elim in
th reat</w>
N u
B .</w>
原 子
Coun tries</w>
秘 书</w>
in nov
可 能
deploy ment</w>
土耳 其</w>
per manent</w>
s anc
F ol
inv ited</w>
疾 病</w>
believ e</w>
下 降</w>
lead ers</w>
sci entific</w>
know n</w>
lik ely</w>
bil lion</w>
真 正</w>
determin ation</w>
ati n</w>
ex tre
deb ate</w>
加勒 比</w>
那 么</w>
a mend
ra di
p i
加 拉
截 至</w>
4 00</w>
is tics</w>
st ates</w>
修 改</w>
v ey</w>
or g
F urthermore</w>
竞 争</w>
h ope</w>
hou sing</w>
ess ing</w>
力 量</w>
Af ter</w>
研 讨
ex ecu
几 内
武装 冲突</w>
Sec ond</w>
8 2</w>
适 应</w>
有 限</w>
mo ve</w>
ner ships</w>
consult ation</w>
CO N
制 裁</w>
全 体
fif th</w>
发 言
r o</w>
5 %</w>
six ty</w>
Dis crimination</w>
之 外</w>
相 互</w>
视 为</w>
part nership</w>
尼 日
2 ,
re affir
攸 关</w>
adop t</w>
c over
T im
Dis armament</w>
t ol
y ond</w>
腐 败</w>
nor m
an g</w>
agen cy</w>
p ace</w>
然 后</w>
Ac c
compens ation</w>
appreci ation</w>
marke ts</w>
&apos; re</w>
TH E</w>
巴基 斯坦</w>
ac tors</w>
st age</w>
C R
增 进</w>
ad ap
encoura ged</w>
ad ju
tr ation</w>
R oom</w>
op tion</w>
领导 人</w>
研讨 会</w>
o il</w>
立 场</w>
太平 洋</w>
qu al
本 身</w>
b ack
调 查
接 触</w>
8 1</w>
意 大
car ry</w>
F ren
救 济</w>
M O
eg u
监 狱</w>
L atin</w>
c rit
南 非</w>
表 现</w>
aver age</w>
不 足</w>
Pers ons</w>
forc ed</w>
solu tion</w>
oblig ation</w>
shor t</w>
wor ds</w>
con fir
6 00</w>
N ig
爱 尔
anc y</w>
un its</w>
le ave</w>
ar ch
s ource</w>
科威 特</w>
D es
很 大</w>
形 成</w>
main tain</w>
recei ve</w>
S al
Chil d</w>
Cha ir</w>
克 斯坦</w>
E lec
er ous</w>
女 孩</w>
Ku wa
ve hic
relation ship</w>
多样 性</w>
各 自</w>
charac ter
ar t</w>
in corpor
sch edul
P A
甚 至</w>
全 部</w>
.. .</w>
伊斯 兰
de al</w>
u n</w>
cons olid
愿 意</w>
Austr alia</w>
ex ternal</w>
暴 力
dis placed</w>
is ing</w>
Gu ine
tre aties</w>
un g
comple ted</w>
刚果 民主共和国</w>
te enth</w>
man u
ant i</w>
in flu
rais ed</w>
ste p</w>
9 5</w>
主 权</w>
种 族</w>
cre ation</w>
L u
di g
success ful</w>
stre am
大 规模</w>
mo bil
平 衡</w>
合 理</w>
所 载</w>
第五 十
世 纪</w>
9 6</w>
cl ass</w>
stu dies</w>
t ment</w>
at s</w>
过 渡</w>
人 力
ha bil
ac ks</w>
applic able</w>
juris diction</w>
E g
不 可</w>
爱尔 兰</w>
S ta
tri al</w>
re ached</w>
terror ist</w>
C ul
de signed</w>
Braz il</w>
拉 丁
似 乎</w>
时 期</w>
rec overy</w>
飞 机</w>
信 托</w>
8 6</w>
斯 拉
I tal
r ant</w>
proc u
足 够</w>
9 7</w>
8 8</w>
educ ational</w>
科 索
clu sions</w>
Requ ests</w>
initi al</w>
pre c
con sensus</w>
你 们</w>
it es</w>
el ess</w>
A C.
pow er
l ined</w>
表 决</w>
数 目</w>
bil ateral</w>
电 子</w>
B ar
明 显</w>
in ning</w>
l ines</w>
pl om
发 出</w>
E th
opin ion</w>
fin ance</w>
pl enary</w>
ill ing</w>
科索 沃</w>
9 8</w>
C hi
ffe red</w>
ex port</w>
ri g
Administr ation</w>
re in
C. 2</w>
e th</w>
往 往</w>
t an
lo ss</w>
go al</w>
实 际
u tiliz
re d
O s</w>
维 也
以 外</w>
Pre vention</w>
Op tional</w>
W est</w>
har mon
复 杂</w>
Pol ic
主 席
和 平
相 信</w>
pa in</w>
拉丁 美洲</w>
拒 绝</w>
z one</w>
维也 纳</w>
来 文</w>
少 年</w>
com pu
处 于</w>
8 4</w>
char ge</w>
tw enty</w>
保 护
统 计
F ed
治 理</w>
v er</w>
延 长</w>
grow ing</w>
approv al</w>
全体 会议</w>
so on</w>
ha m
后 果</w>
p .m.</w>
Pak istan</w>
mon th</w>
conclud ed</w>
achiev ement</w>
海 地</w>
sub si
Associ ation</w>
岛 屿</w>
便 利</w>
accoun tability</w>
be yond</w>
con ferences</w>
IO N</w>
func tion</w>
W el
tak es</w>
种族 歧视</w>
expendit ure</w>
sh aring</w>
dem ocr
ro om</w>
an y
ot es</w>
CN .4</w>
申 诉</w>
教 育
com par
Vi enn
9 3</w>
犯 罪
lead ership</w>
9 1</w>
埃 及</w>
tem porary</w>
Al though</w>
un ds</w>
cour ts</w>
t ask</w>
E lim
requi res</w>
Guine a</w>
cl o
Eg yp
UNF PA</w>
Nor th</w>
评 论</w>
t ting</w>
各 个</w>
最 新</w>
H er
a men
adv ice</w>
lan d
att emp
al ong</w>
can di
in s</w>
maj ority</w>
科 学
9 2</w>
Au th
M ore
disast er</w>
ex pen
os la
欧 盟</w>
es tions</w>
re m
op h
follow s</w>
d r
typ e</w>
合 众
c op
sing le</w>
deta iled</w>
ke ep</w>
法 治</w>
reas ons</w>
e z
as si
Vienn a</w>
捐 助
paren cy</w>
li ve</w>
weap on</w>
安 保</w>
账 户</w>
8 .
ug osla
M iddle</w>
in d</w>
see k</w>
利 比
供 资</w>
西班 牙</w>
rema ined</w>
Y ugosla
y outh</w>
ar m
reflec ted</w>
南 斯拉
settle ment</w>
de struction</w>
6 0
s overe
ag o</w>
ud e</w>
第 七
en abl
regim e</w>
sug g
l ess
Leban on</w>
Fed eral</w>
意大 利</w>
agricul tural</w>
clu sive</w>
I rel
C D</w>
don e
不 可
aliz e</w>
aw ay</w>
C. 3</w>
ph ase</w>
随 后</w>
一 位</w>
effici ent</w>
修 正</w>
S T
pr in
il legal</w>
Par ag
第 三</w>
利比 里亚</w>
dec re
lat er</w>
9 4</w>
de part
ca use</w>
协调 员</w>
procu rement</w>
这 次</w>
停 止</w>
ran ts</w>
S B
酌 情</w>
challen ge</w>
ic k</w>
9 .
statis tics</w>
美 利
意 味
H R</w>
日 益</w>
S R
if ied</w>
9 9</w>
olu tion</w>
阿 根
分 子</w>
cor rec
C ar
In done
w ise</w>
P O
tol er
Irel and</w>
美利 坚
分 发</w>
美利坚 合众
年 龄</w>
ti l
resul ting</w>
试 验</w>
du m</w>
8 9</w>
n s</w>
it i</w>
H a
积 极
ari a</w>
D raft</w>
Fren ch</w>
appro aches</w>
part nerships</w>
succ ess</w>
I F
Coordin ation</w>
t est</w>
通 报</w>
哥 伦
foc used</w>
fem ale</w>
查 明</w>
C .1</w>
几 乎</w>
A sian</w>
enter prises</w>
J am
UN MI
pr ice</w>
em erg
om in
y an
en ded</w>
f ig
c overed</w>
end or
C .</w>
C ap
检察 官</w>
str ong
8 00</w>
M any</w>
c are
UN ID
第 一次</w>
ev ent</w>
m itted</w>
jud ges</w>
提 及</w>
随 着</w>
cl e</w>
大 约</w>
del iv
美 国
impl ications</w>
助 理</w>
re sid
技 能</w>
subm ission</w>
cl ass
ri ti
improv ement</w>
ex p
P or
D el
le ft</w>
rec ently</w>
er ad
M emb
c over</w>
事 实
T w
官 方</w>
commer cial</w>
投 票</w>
pers onal</w>
lead ing</w>
monit or</w>
D ru
人力 资源</w>
印度 尼
途 径</w>
ar ity</w>
利 于</w>
per spec
供 应</w>
saf egu
budge tary</w>
mar k</w>
ret e</w>
h op
cre ated</w>
D ar
jo b</w>
提 请</w>
电 话</w>
anc ement</w>
min e</w>
一 届</w>
al though</w>
com pared</w>
it ment</w>
斯 洛
c raft</w>
创 新</w>
oper ating</w>
se en</w>
b ass
p il
瑞 士</w>
Elim ination</w>
c el
美利坚合众 国</w>
rais ing</w>
规 划署</w>
ec h</w>
n ame</w>
con struc
ili ation</w>
au dit</w>
explo itation</w>
More over</w>
海 洋
ren ce</w>
capac ities</w>
B os
ic k
Leg al</w>
in spec
elec tion</w>
方 针</w>
ic ate</w>
男 子</w>
pay ment</w>
long er</w>
Ar gen
adv oc
投 资
ter ial</w>
Sy stem</w>
tion ing</w>
获 取</w>
遭 到</w>
l ad
invol ving</w>
Argen tin
Fin ancial</w>
sk ills</w>
to ols</w>
observ ations</w>
habil itation</w>
sh ow</w>
意味 着</w>
dol lar
ic i
m i
货 物</w>
ni tion</w>
depend ent</w>
S o</w>
a vi
规 范</w>
指 南</w>
sugge sted</w>
h t
Nu clear</w>
经 过</w>
tim ely</w>
a king</w>
1 1
保 险</w>
il licit</w>
pa rent</w>
crit eria</w>
S l
han d
cl early</w>
商 品</w>
sanc tions</w>
du ty</w>
six th</w>
T able</w>
itte es</w>
profes sional</w>
sub regional</w>
pro por
劳 工</w>
ca used</w>
电 子
W est
it ors</w>
国 籍</w>
re au</w>
Som alia</w>
第三 十
Pro v
国 民</w>
区 域
dis tin
main ly</w>
未 能</w>
pr ices</w>
acti vely</w>
t a</w>
人 士</w>
满 意</w>
迪 瓦</w>
mov ement</w>
ad ver
结 合</w>
科 特
起 草</w>
elec ted</w>
co he
N ote</w>
nation ally</w>
g ol
ar gu
d ang
star t</w>
en try</w>
科特 迪瓦</w>
启 动</w>
Cha m
D C
saf e</w>
各 地</w>
重 建</w>
me an
hou se</w>
consequ ences</w>
战 略
ad vis
初 步</w>
s ent</w>
tr ust</w>
令 人</w>
manu fac
残 疾</w>
pres ence</w>
那 样</w>
&apos; ll</w>
conflic ts</w>
ad em
共同 体</w>
核 查</w>
per pe
di plom
信 任</w>
K y
le t</w>
Par lia
H ow</w>
independ ence</w>
资 格</w>
外 部</w>
Lab our</w>
dollar s</w>
vis it</w>
t al</w>
意 识</w>
dis crimin
Reg ul
In te
订 正</w>
流 动</w>
群 岛</w>
el ds</w>
数据 库</w>
ep tion</w>
达 尔
tric t</w>
in surance</w>
c ity</w>
n ia</w>
挪 威</w>
tar get</w>
找 到</w>
m ass</w>
候 选
in th</w>
C ro
O ver
相 同</w>
y l
Govern ing</w>
i k
阿根 廷</w>
判 决</w>
出 版
ent ation</w>
instru ment</w>
h u
D ep
化学 品</w>
sci ence</w>
Pol ice</w>
不 利</w>
t ;</w>
ast ern</w>
表 示
印度尼 西亚</w>
ro b
su sta
trans parency</w>
种族 主义</w>
ow ing</w>
劳 动</w>
主席 团</w>
ser ies</w>
wee k</w>
双 边</w>
巨 大</w>
e al
conc ept</w>
X X
j our
执行 局</w>
透 明
g ation</w>
平 均</w>
pres s</w>
不 要</w>
am p
Commun ity</w>
mea sure</w>
th y</w>
协 作</w>
M u
利 亚
P lease</w>
克 兰</w>
大 部分</w>
B i
集 中</w>
f low
satis fac
令 人
cre dit</w>
密 切
7 00</w>
v ement</w>
V I</w>
fa ir</w>
R E
以 后</w>
m er</w>
特 设</w>
g ement</w>
g ain
更 新</w>
clos ely</w>
appe al</w>
repres ented</w>
m ach
工 发</w>
id es</w>
reas on
打 算</w>
工 程</w>
sen si
h ost</w>
UNID O</w>
S we
dem ocratic</w>
am a</w>
iz es</w>
Pro secu
剥 夺</w>
an tly</w>
ti vity</w>
er ve</w>
contribu ting</w>
议 事
respon d</w>
e y
tr u
neg ative</w>
ann oun
st ation</w>
stres sed</w>
. org</w>
appl ications</w>
计 算
达尔 富
ati c
F urther</w>
sev enth</w>
i ri
enh ancing</w>
享 受</w>
bro ad</w>
on n
袭 击</w>
ound ation</w>
avo id</w>
man dates</w>
Territ ory</w>
供 应
g lob
转 移</w>
I L
sy ch
Oper ations</w>
defin ed</w>
pre ad</w>
F ra
Pro c
conc rete</w>
P en
附 属</w>
开 放</w>
达尔富 尔</w>
ti f
ex tra
sub jec
cust om
ei j
C. 5</w>
minim um</w>
u su
plac ement</w>
预 测</w>
总 额</w>
r un
理 论</w>
ri age</w>
Egyp t</w>
reflec t</w>
UN A
B ang
West ern</w>
wh y</w>
Tur key</w>
Kuwa it</w>
ris ks</w>
用 途</w>
斯 坦
采取 措施</w>
容 易</w>
on ia</w>
laun ched</w>
is ed</w>
以 期</w>
第四 十
E A</w>
Polic y</w>
波 斯
NG Os</w>
强 迫</w>
Indone sia</w>
reduc ed</w>
don ors</w>
de pen
re me
3 ,
industri al</w>
al a</w>
h ard</w>
用 户</w>
克 罗
is c
descri bed</w>
之 下</w>
ra ise</w>
本 文</w>
plann ed</w>
当 事
we b
meth od
reas on</w>
ur gent</w>
H RC</w>
P S</w>
typ es</w>
期 限</w>
语 文</w>
B eij
常 设</w>
ic ip
gra du
c tion</w>
k ra
it ting</w>
e e
主 流</w>
assess ments</w>
废 物</w>
con clusion</w>
pro mis
女 童</w>
Memb ers</w>
b ers</w>
Res earch</w>
conf idence</w>
在 于</w>
inten ded</w>
生 命</w>
攻 击</w>
en ter</w>
贷 款</w>
is on</w>
c at
We ap
心 理</w>
ro und</w>
altern ative</w>
comm od
议事 规则</w>
预防 犯罪</w>
Col om
f lo
sen ior</w>
粮 食
sum mary</w>
总 体</w>
妇女 地位</w>
am s</w>
压 力</w>
Ital y</w>
市 场
ti se</w>
维 和</w>
Techn ology</w>
拉 圭</w>
c ross</w>
civil ians</w>
b ul
P op
T e
th ings</w>
难民 署</w>
Techn ical</w>
produc ed</w>
Thir d</w>
collec tion</w>
wan da</w>
su ff
beg inning</w>
cor ruption</w>
S wit
Rul es</w>
in tel
enjo y
reli ef</w>
特 别
worksh ops</w>
剥 削</w>
Ob serv
非洲 联盟</w>
dra f
regis tration</w>
pu ts</w>
吁 请</w>
govern ments</w>
all ed</w>
adv ance</w>
乌 克兰</w>
abs ence</w>
后 勤</w>
Cor r
mig rants</w>
遗 憾</w>
fo rest</w>
M A
组 成
类 型</w>
透明 度</w>
mak es</w>
writ ten</w>
k ers</w>
su med</w>
暴力 行为</w>
pos e</w>
荷 兰</w>
Offic er</w>
Rec og
关 键
R wanda</w>
南斯拉 夫</w>
ati vely</w>
f requ
ch ec
al most</w>
mo der
ta x</w>
Is lands</w>
返 回</w>
air craft</w>
原子 能</w>
Chi ef</w>
difficul ties</w>
层 面</w>
prepar e</w>
recog nition</w>
un it</w>
叙 利亚</w>
enh anced</w>
Rev .1</w>
compon ent</w>
ord ers</w>
dam age</w>
波斯 尼亚</w>
v ac
adju st
国家 一级</w>
re mov
民 众</w>
ma xim
go t</w>
状 态</w>
ac tual</w>
殖 民
Ob jec
ge ograph
gener ally</w>
determin ed</w>
Rec om
Strateg y</w>
us eful</w>
事务 部</w>
卫 星</w>
pos sibility</w>
Ass istance</w>
新 西
ca uses</w>
h om
s ound</w>
T O</w>
leg iti
f el
浦 路
塞 浦路
Tra ining</w>
pen al
c ame</w>
次 级</w>
中 东</w>
即 使</w>
Swit zer
b as
所 有人</w>
eigh th</w>
M il
invol vement</w>
ou se</w>
wel comes</w>
struc tures</w>
fi ght</w>
不 到</w>
告 诉</w>
额 外</w>
私 人</w>
m ic
Bu reau</w>
coun ter</w>
comple x</w>
三 届</w>
li ber
cont ent</w>
m ate</w>
dat ab
瑞 典</w>
hou se
s h</w>
cl ari
Con tro
S pain</w>
produc t</w>
recor d</w>
部 长
cur red</w>
资 本</w>
ven tions</w>
中 期</w>
K en
bi tion</w>
Inter net</w>
Si x
high ligh
塞 拉
x ed</w>
U kra
y m
最 低</w>
exper tise</w>
clos ed</w>
布 隆
tur ing</w>
裁 决</w>
electr onic</w>
DA W</w>
Switzer land</w>
li ves</w>
载 有</w>
eval u
摩 洛
投 入</w>
err a</w>
author ized</w>
mu tual</w>
埃 塞
l a</w>
包 含</w>
外 交</w>
is land</w>
exten ded</w>
reduc ing</w>
ex i
determin e</w>
employ e
Pro f
G reat</w>
Th ose</w>
arbit r
多 年</w>
coordin ated</w>
S ev
CE DAW</w>
全球 化</w>
In iti
埃塞 俄
se x</w>
自 由
con clusions</w>
n inth</w>
Ne ther
langu ages</w>
Auth ority</w>
和 解</w>
上 文</w>
对 此</w>
为 止</w>
re habilitation</w>
rac ial</w>
工程 处</w>
法 令</w>
看 法</w>
vi r
Beij ing</w>
e a
L an
效 果</w>
In cre
cent age</w>
建 设
se a</w>
帝 汶</w>
子 女</w>
re a</w>
toler ance</w>
I M
哥伦 比亚</w>
depart ments</w>
小 时</w>
主 持</w>
利 昂</w>
Gen der</w>
Exper ts</w>
cas h</w>
ar d
候选 人</w>
容 忍</w>
immedi ate</w>
Ph il
一 条</w>
competi tion</w>
tur n</w>
review ed</w>
emerg ing</w>
男 女</w>
ro w
off er</w>
争 取</w>
re st
这 里</w>
di men
指 示</w>
资 源
un i
under take</w>
一 个
mo tion</w>
A S
竞 争
b ase</w>
补 救</w>
现 行</w>
re pe
阁 下</w>
实际 上</w>
塞拉 利昂</w>
spe ak
re new
清 楚</w>
干 预</w>
B ol
encoura ges</w>
作 出
re ad</w>
基 地</w>
事实 上</w>
军 事
一 方面</w>
执 法</w>
ab or
su b</w>
ci pl
te m</w>
差 距</w>
c ell
东 帝汶</w>
hol ding</w>
喜 欢</w>
父 母</w>
sha red</w>
Argentin a</w>
xim ately</w>
recru itment</w>
accoun ts</w>
Nether lands</w>
颁 布</w>
K os
h a</w>
re v
Si erra</w>
世界 银行</w>
2 12</w>
prohi b
阿尔 及
Corr .1</w>
S ch
的 话</w>
iqu e</w>
D oc
des pite</w>
occup ied</w>
报 表</w>
z ed</w>
l ate</w>
i op
ne igh
组成 部分</w>
拟 定</w>
N U
ir ing</w>
相 互
兴 趣</w>
赞 扬</w>
docu mentation</w>
att acks</w>
边 界</w>
效 力</w>
独 立
人道 主义
follow ed</w>
具 体
cont act</w>
失 踪</w>
increas ingly</w>
al ism</w>
Nor way</w>
集 体</w>
Par t
逮 捕</w>
差 异</w>
任 期</w>
gro unds</w>
in de
cre d
公 民
f are</w>
ter ing</w>
Eth iop
defin ition</w>
切 实</w>
Z eal
大 使</w>
ist ant</w>
sh own</w>
道 路</w>
enter prise</w>
方 向</w>
wor ld
lear ning</w>
CC C</w>
Palestin e</w>
ov o</w>
案 文</w>
eng aged</w>
particip ated</w>
正 如</w>
津 贴</w>
特 点</w>
人道主义 法</w>
solu tions</w>
li g
strength ened</w>
worksh op</w>
哪 些</w>
第二 次</w>
环境 署</w>
可能 性</w>
spon s
ace building</w>
Cul tural</w>
p ati
r a</w>
有 利于</w>
j an</w>
b ai
新西 兰</w>
摩洛 哥</w>
bec om
公 布</w>
Lib eria</w>
态 度</w>
ti v
memb ership</w>
con ver
ha z
m ag
fi elds</w>
pris on</w>
尼日 利亚</w>
represent ation</w>
团 结</w>
organ s</w>
m al
is ten
pl an
198 9</w>
conven tions</w>
im posed</w>
ad ded</w>
I tem</w>
展 开</w>
di a</w>
b oo
re conc
百 分
P ow
M E
cir cul
诉 人</w>
密 切</w>
ar y
ear li
ur ged</w>
refuge e</w>
medi um</w>
派 遣</w>
工 资</w>
st ations</w>
contro l
y er</w>
S T</w>
制 造</w>
9 00</w>
hist ory</w>
Recog n
Weap ons</w>
as ks</w>
ma r</w>
销 售</w>
b ook</w>
ag ue</w>
S pace</w>
cooper ate</w>
消 费
he av
om an</w>
担 保</w>
菲 律
op tions</w>
St atis
estim ates</w>
全 世界</w>
aff airs</w>
in clusion</w>
appoin ted</w>
sch em
自 然</w>
埃塞俄 比亚</w>
F ac
离 开</w>
依 然</w>
ro w</w>
P o
O ur</w>
7 0
CO P</w>
第 四</w>
a ,</w>
st an</w>
sec ond
伊 朗</w>
Zeal and</w>
guarante e</w>
hist or
弹 药</w>
emphasiz ed</w>
perpe tr
ag ing</w>
摘 要</w>
o ther
E qu
HC HR</w>
Cy pr
U r
consum ption</w>
ar re
唯 一</w>
occup ation</w>
wast e</w>
J ud
discus s</w>
SR .
orig in</w>
i red</w>
污 染</w>
巴 布
V ol
系 统
出版 物</w>
英 国</w>
paren ts</w>
sev en</w>
持 续
de si
fl exi
Fi eld</w>
don or</w>
处 罚</w>
M ac
功 能</w>
di ary</w>
ass ess</w>
制 止</w>
年 代</w>
freed oms</w>
筹 措</w>
O HCHR</w>
Fif th</w>
相 应</w>
high est</w>
F am
F rom</w>
ban k</w>
comb ating</w>
al le
m a</w>
显 然</w>
um s</w>
防 治</w>
democr acy</w>
B en
Bos nia</w>
c ar</w>
def ence</w>
分 享</w>
Cypr us</w>
et ter</w>
不 再</w>
st ac
Pe acekeeping</w>
充 分
H uman
阿 塞
ru n</w>
共 识</w>
rema ining</w>
Le one</w>
伊 朗
Fra mework</w>
accep ted</w>
centr e</w>
F O
Kos ovo</w>
人 力</w>
wel come</w>
气 候</w>
T u
尽 可能</w>
j usti
m em
财 政
I C</w>
布隆 迪</w>
constitu te</w>
观 察</w>
port ation</w>
proc essing</w>
合 法</w>
阿塞 拜
targe ts</w>
今 年</w>
G az
ris e</w>
neigh b
sit es</w>
do ing</w>
H ab
at ell
ww w
d y
N P
菲律 宾</w>
dra w</w>
p sych
法 案</w>
V ice</w>
resul ted</w>
publ ished</w>
accoun ting</w>
whe re
mea su
ib er
v ill
head quarters</w>
行 业</w>
es day</w>
Vi ol
In troduc
地 利</w>
ch i
E l</w>
预 算
plac es</w>
管 辖</w>
c ou
而 是</w>
Au stri
Inte gr
ul t</w>
分 类</w>
inter nationally</w>
4 ,
主 管
set ting</w>
正 常</w>
Jam a
估 计
cru cial</w>
模 型</w>
an im
是 因为</w>
玻 利
使 用
organiz ational</w>
那 个</w>
mul ti</w>
跨 国</w>
deal ing</w>
争 端</w>
相 对</w>
off ences</w>
de gra
mor t
un ity</w>
旅 行</w>
ip p
中 央</w>
r ying</w>
现 金</w>
appro ximately</w>
8 0
net works</w>
hos p
E .</w>
respon ding</w>
m iti
Fin ancing</w>
www .
ar di
他 人</w>
compe tent</w>
Am bass
u a</w>
M at
1 20</w>
A zer
lo s
Her z
诸 如</w>
Re affir
阿尔及 利亚</w>
ac compl
促 请</w>
se g
取 消</w>
阻 碍</w>
out comes</w>
10 5</w>
hap p
o men
发 布</w>
透 明</w>
Al g
更 为</w>
exis tence</w>
ban ks</w>
z e</w>
雇 员</w>
l isted</w>
w oman</w>
Ha iti</w>
W A</w>
高 专</w>
sur vey</w>
ur ges</w>
Sta ff</w>
allow ed</w>
我 们
particip ating</w>
ach ing</w>
N A
家庭 暴力</w>
eg ov
So ci
fail ure</w>
categ ory</w>
oc k</w>
逐 步</w>
年 度
法 规</w>
Herz egov
解决 办法</w>
调 动</w>
使 得</w>
相 当</w>
r i</w>
10 9</w>
hear d</w>
immedi ately</w>
之 中</w>
observ ers</w>
死 刑</w>
Nor thern</w>
进 步</w>
en ds</w>
替 代</w>
燃 料</w>
affec t</w>
pur ch
葡 萄
减 轻</w>
198 8</w>
刑 法</w>
Ukra ine</w>
expres sion</w>
付 款</w>
er o
学 院</w>
lo ve</w>
二 届</w>
Nig eria</w>
合作 伙伴</w>
perspec tive</w>
Azer bai
申 诉人</w>
val ues</w>
食 物</w>
Colom bia</w>
I vo
w ent</w>
hon our</w>
ti t
ob stac
申 请
dis cipl
S O
chem ical</w>
克罗 地
表 达</w>
c oura
subsequ ent</w>
业 绩</w>
Dep u
死 亡
p t</w>
ec e</w>
Con si
no ti
threat s</w>
su stain
s ays</w>
gr at
企 业
es h</w>
D o
ch ing</w>
integr ity</w>
expres s</w>
潜 在</w>
ac knowled
合 并</w>
利 比亚</w>
form ed</w>
仲 裁</w>
I .</w>
empha sis</w>
dec laration</w>
公 务
为 什么</w>
elimin ate</w>
respec tively</w>
pr e</w>
赋 予</w>
Swe den</w>
乌 干
R o
专门 机构</w>
g as</w>
re pl
min es</w>
collec tive</w>
Pre par
最 好</w>
ation ,</w>
nam ely</w>
Ivo ire</w>
if e</w>
紧 急
F ourth</w>
奥 地利</w>
几内 亚</w>
orig inal</w>
Ge org
beg an</w>
qu anti
E U</w>
pres sure</w>
伤 害</w>
决 心</w>
contribu ted</w>
漠 化</w>
sur ve
thou ght</w>
d ri
mar ine</w>
e red</w>
ro l
智 利</w>
eng agement</w>
separ ate</w>
S im
单 独</w>
平 台</w>
塞浦路 斯</w>
仅 仅</w>
St rength
赞 同</w>
&apos; Ivoire</w>
东 西</w>
en ough</w>
ex ecutive</w>
完 整</w>
F ri
母 亲</w>
Phil ipp
Tur k
泰 国</w>
格 鲁
ww w</w>
乌干 达</w>
sem ination</w>
联合 会</w>
und i</w>
毛 里
ain t</w>
R efu
T or
statis tical</w>
appoin tment</w>
mun icip
马 来
fin dings</w>
5 ,
储 存</w>
re ally</w>
ch es</w>
教 师</w>
del iber
re forms</w>
lo t</w>
反 恐</w>
contrac ts</w>
require ment</w>
fun ded</w>
ra in</w>
cal cul
bri ef
ad minis
pun ishment</w>
F ood</w>
specif ically</w>
马 拉</w>
C ô
M ed
报 道</w>
Territ ories</w>
ac ting</w>
格鲁 吉
direc tion</w>
道 德</w>
ha vi
S ing
Refu ge
Cro ati
enti re</w>
Dec ides</w>
sec ure</w>
ic als</w>
cl assi
估计 数</w>
highligh ted</w>
讨 论
Cô te</w>
黑 塞
. m</w>
rati fication</w>
南 部</w>
车 辆</w>
事 情</w>
con stra
ail y</w>
qu e</w>
四 届</w>
mar riage</w>
gra m</w>
证 书</w>
Herzegov ina</w>
compon ents</w>
The re
民 国</w>
成 就</w>
Gu id
inter n
Bur undi</w>
Pop ulation</w>
low ing</w>
l er</w>
pre sid
外 国
开 支</w>
Indi genous</w>
de st
ad visory</w>
in clusive</w>
t asks</w>
t our
参 与
F .
recor ds</w>
严 格</w>
伊斯兰 共和国</w>
territ ories</w>
el er
分 摊</w>
肯 尼亚</w>
T otal</w>
s or
ke t</w>
eng age</w>
货 币</w>
居 住</w>
respon ses</w>
北 京</w>
Par t</w>
惩 罚</w>
尼 斯</w>
外 层
n or</w>
人 口
cour ses</w>
sy m
shor t
re le
I ts</w>
医 院</w>
体 现</w>
investig ations</w>
loc ation</w>
生 态
Mor occ
acc es
外层 空间</w>
L A
exam ination</w>
Human itarian</w>
小 岛屿</w>
Reg is
ish es</w>
黑塞 哥
议 题</w>
公 司
regis tered</w>
有 力</w>
M ic
Minis ters</w>
B rit
V II</w>
有 所</w>
play ed</w>
马来 西亚</w>
黑塞哥 维
cha pter</w>
青 少年</w>
power ment</w>
agricul ture</w>
黑塞哥维 那</w>
朋 友</w>
Secret ary
Morocc o</w>
U gan
S ou
candi dates</w>
interpre tation</w>
谴 责</w>
上 升</w>
任 何
C H
Recom mend
Ambass ador</w>
O f</w>
阿塞拜 疆</w>
教 科
tren ds</w>
效 益</w>
示 范</w>
放 在</w>
武装 部队</w>
塞 尔
se l</w>
i o</w>
AN D</w>
ap s</w>
装 备</w>
indic ate</w>
us ers</w>
那 里</w>
min orities</w>
&apos; ve</w>
荒 漠化</w>
进 口</w>
Depu ty</w>
D en
lear ned</w>
Hab it
ag g
n esses</w>
Contro l</w>
fac ed</w>
cre ating</w>
po st
be havi
H ar
Res pon
par lia
全 体</w>
场 所</w>
当 时</w>
h ood</w>
Stat us</w>
conc entr
ow ned</w>
gro ss</w>
si vely</w>
Pr inci
shi p
val u
end ers</w>
pro duce</w>
at tribu
格鲁吉 亚</w>
institu tion</w>
high ly</w>
Ethiop ia</w>
一 体
to p</w>
L etter</w>
类 别</w>
In ter</w>
七 届</w>
族 裔</w>
199 4
少 数
categ ories</w>
Introduc tion</w>
Th ail
fu r</w>
alleg ed</w>
g ion</w>
h im
st or
军 队</w>
Ch ile</w>
emb ar
证 人</w>
ai l</w>
fu el</w>
ron t</w>
t ool</w>
时 间
出 来</w>
h or
avail ability</w>
di ed</w>
危 害</w>
acc ur
reli gion</w>
I L</w>
自 治</w>
石 油</w>
identi fication</w>
实 践</w>
T un
高 度</w>
Objec tive</w>
Habit at</w>
pre me</w>
Mal ay
sid es</w>
de ep</w>
V en
The ir</w>
exten d</w>
oc ca
因 而</w>
克罗地 亚</w>
Con gress</w>
trans l
alleg ations</w>
M ig
in form</w>
mo di
当 然</w>
second ary</w>
v isi
一体 化</w>
dem an
款 项</w>
控 制
阐 述</w>
刚 果</w>
D ef
nor ms</w>
lim it</w>
会 计
ne ar</w>
Wh ere</w>
比 利
修 正
Inter nal</w>
得 以</w>
territ orial</w>
登 记
IA EA</w>
Cham ber</w>
ei ght</w>
S m
政治 权利</w>
out standing</w>
show s</w>
薪 金</w>
sovere ign
知 识
大 韩
大韩 民国</w>
以 往</w>
Mon it
draw n</w>
C P
conven ed</w>
尼 亚
observ ed</w>
Ter ror
bi g</w>
高 兴</w>
consi ders</w>
comple tion</w>
捐助 者</w>
so f
融 资</w>
妨 碍</w>
C RC</w>
也 许</w>
p ic
手 册</w>
employ ed</w>
reg n
con vic
func tioning</w>
巩 固</w>
Thail and</w>
协 商
for um</w>
t ative</w>
con tains</w>
Cha pter</w>
en ding</w>
除 非</w>
生 殖</w>
人民 共和国</w>
o red</w>
现 实</w>
enc ed</w>
五 届</w>
g er</w>
op ening</w>
moder n</w>
expendit ures</w>
f all</w>
pro per</w>
公务 员</w>
oc k
Chair person</w>
li qu
Ad v
试 图</w>
同 一</w>
信息 技术</w>
tur y</w>
概 述</w>
for ty</w>
叙 利亚
排 放</w>
stream ing</w>
药 品</w>
即 将</w>
将 会</w>
vis its</w>
elec toral</w>
B us
持 久</w>
促 使</w>
signific antly</w>
fac tor</w>
substan tial</w>
大 家</w>
Tr ust</w>
推 进</w>
M ost</w>
审 理</w>
cy cle</w>
el a</w>
9 63</w>
相 比</w>
证 实</w>
CO M
dru gs</w>
提 高
民 族
修正 案</w>
condi tion</w>
Par ti
细 则</w>
Ken ya</w>
sou ght</w>
E C</w>
regul ation</w>
im pe
Ad di
siz e</w>
preven ting</w>
确 立</w>
并 非</w>
教 训</w>
特 征</w>
ti eth</w>
1 50</w>
st ly</w>
campa ign</w>
Brit ain</w>
m other</w>
特 里亚</w>
less ons</w>
ac adem
e .
v en</w>
et ary</w>
re integration</w>
八 届</w>
A no
sub programme</w>
lin ked</w>
涵 盖</w>
recor ded</w>
N et
comm ission</w>
年 底</w>
p ir
Austri a</w>
I S</w>
负 责
them atic</w>
re alization</w>
融 入</w>
al i</w>
免 费</w>
组 织
取 决
M ad
Ac coun
per centage</w>
Ag ricul
some thing</w>
定 性</w>
多 个</w>
influ ence</w>
In du
J ord
孟 加拉
加 沙</w>
ann ing</w>
波 兰</w>
厄 立
Ad option</w>
t un
管 辖
Tw o</w>
N ic
un .org</w>
cip al</w>
em ed</w>
厄立 特里亚</w>
Philipp ines</w>
装 置</w>
受害 人</w>
con tra
sovereign ty</w>
re productive</w>
cer tain
pre dic
m ess
regul atory</w>
Doc u
建 筑</w>
mar g
Parlia ment</w>
检 查
M r</w>
庇 护</w>
自然 资源</w>
em issions</w>
男 性</w>
Ano ther</w>
出 版</w>
fir e</w>
nu tri
伊朗 伊斯兰共和国</w>
recogn ize</w>
elim ination</w>
过 境</w>
experi ences</w>
suppor ts</w>
mat ern
W at
Yugosla via</w>
S ur
Azerbai jan</w>
under stand</w>
无 核武器</w>
Gaz a</w>
6 ,
滥 用</w>
b s</w>
al ists</w>
该 项</w>
spe aking</w>
cons ent</w>
周 期</w>
y ed</w>
popul ations</w>
部长 级</w>
a red</w>
enjoy ment</w>
dise ases</w>
ur ation</w>
监 管</w>
min ority</w>
chan ged</w>
丹 麦</w>
释 放</w>
complain ts</w>
hol ds</w>
Rul e</w>
O l
H ong</w>
坚 持</w>
There fore</w>
FA O</w>
取决 于</w>
消 费</w>
Por tu
讨论 会</w>
第 九
intere sted</w>
z ation</w>
qu esti
in ding</w>
不 得
希 腊</w>
ra ble</w>
dis semination</w>
ic an</w>
earli er</w>
ci ties</w>
E rit
de partment</w>
amp ;</w>
& amp;</w>
S am
acc eler
wor d</w>
see king</w>
安 哥
经 营</w>
变 得</w>
c anc
Alg eria</w>
突 出</w>
ff ic</w>
危 地
Regul ations</w>
s av
th ly</w>
d ge</w>
Bang lad
I G
Dar fur</w>
aliz ing</w>
最 高
未 经</w>
me works</w>
M yan
v ital</w>
par as</w>
por ting</w>
flow s</w>
医 生</w>
gran ted</w>
O u
认 可</w>
推 广</w>
一 下</w>
specif ied</w>
Con sul
孟加拉 国</w>
公共 部门</w>
阿拉伯 叙利亚
阿拉伯叙利亚 共和国</w>
ni ght</w>
死亡 率</w>
tw are</w>
Fin ally</w>
征 聘</w>
expl ain
Bel ar
equ itable</w>
混 合</w>
共 计</w>
pay ments</w>
卫生 组织</w>
in ts</w>
sta ff
dis semin
柬 埔
en tered</w>
地 球</w>
产 出</w>
Dec ade</w>
ob tain</w>
su spen
s atell
nation ality</w>
o ffered</w>
vehic les</w>
del ay</w>
芬 兰</w>
consider ing</w>
de g
form ulation</w>
ob tained</w>
可 靠</w>
年 来</w>
Myan mar</w>
datab ase</w>
Sum mary</w>
ph en
ste ad</w>
wid ely</w>
客 户</w>
rap id</w>
Fol lowing</w>
sen ten
atic ally</w>
p regn
at a</w>
就 此</w>
web site</w>
Vol un
注 重</w>
Ugan da</w>
g ave</w>
f low</w>
aw are</w>
F CCC</w>
re lease</w>
Sev eral</w>
er ies</w>
ud i</w>
可 行</w>
伊斯 兰</w>
行 预</w>
Qu estions</w>
ast er</w>
fi l</w>
constitu tional</w>
汽 车</w>
endor sed</w>
M ov
l as
pl at
缅 甸</w>
受 理</w>
人 居</w>
star ted</w>
e ding</w>
脆 弱</w>
bl es</w>
意 愿</w>
assess ed</w>
An y</w>
大 楼</w>
7 ,
Ass istant</w>
Se a</w>
over sight</w>
根 本</w>
s w
extre m
diplom atic</w>
正 确</w>
suppl ies</w>
命 令</w>
重 返</w>
恤 金</w>
秘 鲁</w>
Malay sia</w>
victi m</w>
wor ked</w>
咨 询
lo st</w>
spec ts</w>
C T
el ement</w>
at em
el i
deg ree</w>
n ar
有 时</w>
四 个</w>
Parti cip
国 务
los ses</w>
约 旦</w>
prov in
con taining</w>
ci d
10 .
subsi diary</w>
UNO DC</w>
速 度</w>
C z
遇 到</w>
空 缺</w>
aut om
an a</w>
ak es</w>
ful fil</w>
fac ing</w>
错 误</w>
监 禁</w>
form ity</w>
角 度</w>
D o</w>
Su preme</w>
Ch an
iri t</w>
二 十
比利 时</w>
decre ase</w>
更 大</w>
c r
sp irit</w>
reason able</w>
inf ec
tr ue</w>
W ith
引 渡</w>
W H
un less</w>
Jo h
职 务</w>
men ted</w>
ma il</w>
Monit oring</w>
them e</w>
dis ability</w>
Gu atem
expan sion</w>
只 要</w>
in ven
Banglad esh</w>
sen se</w>
bo ard</w>
回 应</w>
main tained</w>
M us
国 内
C a
9 0
te ams</w>
n ation</w>
expen ses</w>
Prosecu tor</w>
t y
St and
蒙 特
代 理</w>
实 地</w>
负 担</w>
ag ree</w>
d .</w>
e as
尼 泊
Dru gs</w>
有 效
ht t
白 俄罗斯</w>
me an</w>
y ers</w>
D .</w>
M ul
st ood</w>
只 能</w>
re ven
compl y</w>
合 法
advant age</w>
giv ing</w>
govern ing</w>
依 赖</w>
观察 团</w>
危地 马拉</w>
selec ted</w>
amoun ts</w>
b ran
j un
targe ted</w>
劳动 力</w>
In spec
瓜 多
厄 瓜多
l iter
产 权</w>
ar ising</w>
fra meworks</w>
ex ist</w>
a .m.</w>
情 报</w>
安哥 拉</w>
intern ally</w>
bir th</w>
fail ed</w>
Princi ples</w>
compu ter</w>
第三 次</w>
T an
pat ri
Leban ese</w>
en ting</w>
consider able</w>
susta ined</w>
突 尼斯</w>
E D</w>
t ex
定 于</w>
off ence</w>
自 身</w>
工 业
restric tions</w>
Sa udi</w>
tion ally</w>
reconc iliation</w>
斗 争</w>
Pri me</w>
Pro ject</w>
计 划
previ ously</w>
宗 旨</w>
disast ers</w>
澄 清</w>
商 业
IL O</w>
ar ding</w>
p ack
conclud ing</w>
Res ources</w>
comm issions</w>
ak h
Th us</w>
Georg ia</w>
ple ase</w>
w er</w>
loc ated</w>
head s</w>
sur vi
Cam bo
H o
秩 序</w>
top ic</w>
I I
o to</w>
he al
教科 文
No ting</w>
Develop ing</w>
外 勤</w>
An gol
comm ittees</w>
main taining</w>
199 3
enjo y</w>
tu red</w>
教科文 组织</w>
jour n
I s</w>
每 天</w>
ation .</w>
增 长
面 前</w>
朝 鲜
cen tury</w>
UN ES
T S</w>
界 定</w>
书 面</w>
成 绩</w>
complain ant</w>
as yl
sol id
cl ear
委 内
cover age</w>
恶 化</w>
规 约</w>
委内 瑞
satisfac tion</w>
st a</w>
的 ，
strong ly</w>
tri c</w>
amend ments</w>
简 单</w>
el f</w>
employe es</w>
i ent</w>
poin ted</w>
d riv
r ace</w>
Terror ism</w>
西 非</w>
快 速</w>
Ira q
198 0</w>
a ther</w>
Croati a</w>
re jec
al ist</w>
techn ological</w>
ing ing</w>
总 理</w>
任 意</w>
年度 报告</w>
P ur
O D
尽 快</w>
enti ty</w>
dis appe
prov ed</w>
pres entation</w>
spo ke</w>
d aily</w>
g t;</w>
& gt;</w>
al one</w>
亚 美
g .</w>
S te
car rying</w>
Des pite</w>
购 买</w>
mig rant</w>
与 此
C E</w>
要 素</w>
b it</w>
fri end
rati fied</w>
ell ing</w>
coun ter
东 道
与 其</w>
确 实</w>
B .
核 裁军</w>
reserv ations</w>
sti pul
En ergy</w>
ow nership</w>
enabl ing</w>
es sional</w>
fe el</w>
mort ality</w>
ob il
ow n
n ations</w>
invest ments</w>
E cu
w i
Per u</w>
er t</w>
introduc tion</w>
J er
a me
第 一个</w>
现 代</w>
ad mis
alloc ation</w>
R ac
公民 权利</w>
up dated</w>
Fin land</w>
amen ded</w>
衡 量</w>
发 起</w>
M ore</w>
本 次</w>
参 考</w>
Ar men
罗 马
食 品</w>
人 道</w>
stoc k</w>
就 业
erad ication</w>
M D
mar ily</w>
design ated</w>
tradi tion</w>
protec ted</w>
Belar us</w>
main streaming</w>
听 取</w>
管辖 权</w>
bec ame</w>
En coura
dise ase</w>
测 试</w>
用 来</w>
B as
con vention</w>
终 止</w>
dec ide</w>
other wise</w>
简 要</w>
dec la
identi ty</w>
经 委会</w>
l or
志 愿
一 致
ad es</w>
usu ally</w>
应 急</w>
di vi
el ine</w>
mar ks</w>
1 10</w>
加 快</w>
e ing</w>
Pre sid
克 共和国</w>
glob alization</w>
Se e</w>
强 烈</w>
leg ally</w>
政 党</w>
A R
软 件</w>
du ties</w>
记 者</w>
f er
管理 局</w>
toc ols</w>
L O
ide a</w>
培 训
j ob
aim s</w>
et tle
Sci entific</w>
ph ere</w>
N ep
声 称</w>
许 可
里 兰
Y ear</w>
confir med</w>
y an</w>
pres sion</w>
em powerment</w>
oc al</w>
UNES CO</w>
acc ept</w>
dy nam
驱 逐</w>
c k</w>
Me a
Initi ative</w>
jo in
flo or</w>
K ong</w>
制 作</w>
st ance</w>
Tim or</w>
legiti mate</w>
inten si
Pol and</w>
厄瓜多 尔</w>
设 想</w>
sup ple
Cz ech</w>
M echan
IC T</w>
b on</w>
N a
警 察
htt p</w>
我 要</w>
diver sity</w>
con serv
b ound
减 贫</w>
et c</w>
Con c
wh om</w>
im prison
总 是</w>
Refuge es</w>
af for
asyl um</w>
列 出</w>
小 型</w>
system atic</w>
Con tin
i ii</w>
sof tware</w>
监 察
ess ed</w>
B ul
sta ble</w>
E R</w>
谅 解</w>
ordin ary</w>
larg est</w>
A ud
at ures</w>
NP T</w>
显 著</w>
必 要
wee ks</w>
S aint</w>
encoura ging</w>
委内瑞 拉</w>
7 %</w>
对 象</w>
销 毁</w>
ol d
pri marily</w>
penal ty</w>
争 议</w>
er tification</w>
we alth</w>
巴勒 斯坦
T i
For ms</w>
os y
tren d</w>
ic ial</w>
initi ated</w>
具 备</w>
面 对</w>
cons isten
Bel gi
sen tence</w>
facilit ating</w>
适 合</w>
一 道</w>
塞 尔</w>
10 1</w>
S P
eng ine
ri es</w>
chan ging</w>
2 %</w>
整 体</w>
潜 力</w>
Jord an</w>
3 %</w>
t ations</w>
con formity</w>
持续 性</w>
teach ers</w>
进 行
斯 里兰
发言 者</w>
am bia</w>
货 币
ever th
感 染</w>
T ran
cha ir
H ung
推 迟</w>
经 历</w>
交 换</w>
塞尔 维亚</w>
op tim
maxim um</w>
teach ing</w>
atten ded</w>
UN IF
医 疗
Mil itary</w>
rou gh</w>
e ties</w>
新 加
Ven ez
东道 国</w>
下 来</w>
sustain ability</w>
ea si
ou ter</w>
ta x
H er</w>
min ing</w>
de priv
differen ces</w>
t .</w>
E astern</w>
豁 免</w>
draf ting</w>
Venez u
普 通</w>
clo sure</w>
ser i
ar ily</w>
t old</w>
per c
高 等
哈 拉</w>
i um</w>
sensi tive</w>
un able</w>
aut onom
斯里兰 卡</w>
Fam ily</w>
10 0
prosecu tion</w>
inst ance</w>
ac ted</w>
Belgi um</w>
ex clud
下 文</w>
日 起</w>
th an
cl e
互 动</w>
卡 塔
ol es
老 年人</w>
Guatem ala</w>
ari time</w>
198 6</w>
se ar
或 者
there by</w>
n e</w>
Pro motion</w>
prepar ing</w>
遣 队</w>
加 尔</w>
world wide</w>
att ack</w>
protec ting</w>
有 所
struc tural</w>
思 想</w>
g g
19 67</w>
re ver
fav our</w>
con dem
位 置</w>
rac ism</w>
N um
S pan
receiv ing</w>
首 脑</w>
裁 军
援 助
会 计</w>
adv anced</w>
w ishes</w>
investig ate</w>
惯 例</w>
im mun
deta ils</w>
trans parent</w>
al ed</w>
2 50</w>
无 论</w>
设 法</w>
pol lu
h ind</w>
图 书
建 筑
deliv ered</w>
st op</w>
publ ications</w>
柬埔 寨</w>
O rig
北 爱尔兰</w>
dig n
物 品</w>
葡萄 牙</w>
E stabl
决 策
in qu
ten ts</w>
S C</w>
全 面
num bers</w>
ir y</w>
mo del
G DP</w>
拨 款</w>
北 部</w>
imp acts</w>
人 格</w>
alloc ated</w>
ment ,</w>
赞 成</w>
信 仰</w>
reng th</w>
观 念</w>
num erous</w>
有 利</w>
a ud
K az
大 不
geograph ical</w>
g al</w>
pre lim
限 于</w>
信 贷</w>
lat ter</w>
b inding</w>
coordin ate</w>
尼泊 尔</w>
exam ine</w>
Com b
acc used</w>
生 育</w>
resol ve</w>
character istics</w>
提供 援助</w>
担 心</w>
口 头</w>
w ri
婚 姻</w>
议 员</w>
announ ced</w>
join tly</w>
publ ication</w>
trans portation</w>
incid ents</w>
ful f
tro ops</w>
清 洁</w>
财务 报表</w>
S ri</w>
lin k</w>
re si
列 颠</w>
一 旦</w>
dest ro
几 年</w>
ver ification</w>
觉 得</w>
2 6
op ened</w>
fel t</w>
k illed</w>
il ateral</w>
例 子</w>
pos al</w>
sol di
备 选</w>
怎 么</w>
Co sta</w>
fi gh
reserv ation</w>
achiev ements</w>
for th</w>
肯 定</w>
十 一届</w>
Sa har
thir ty</w>
Bud ge
me dic
Ecu ador</w>
es tion</w>
B ased</w>
三 年</w>
everth eless</w>
罗马 尼亚</w>
beg in</w>
运 行</w>
oun ded</w>
价 值
st rength</w>
准 确</w>
受 益</w>
L et</w>
tel l</w>
C M
hear t</w>
collab or
obstac les</w>
mic ro
serv ic
少数 民族</w>
职 等</w>
prelim inary</w>
job s</w>
if t</w>
Net work</w>
equ iv
斯 达
m os
a por
pursu e</w>
名 额</w>
dispu te</w>
首 次</w>
ag gres
pen ding</w>
an ese</w>
el led</w>
难 以</w>
克 服</w>
transi t</w>
amend ment</w>
Pow er</w>
C alls</w>
w al
um e</w>
N E
男 女
渔 业</w>
期 待</w>
联 网</w>
gu ide</w>
10 2</w>
cu t</w>
adap tation</w>
cre di
expl an
F D
WH O</w>
主 动</w>
Part nership</w>
两 项</w>
新闻 部</w>
ar rest</w>
bar ri
裁军 谈判</w>
exc ept</w>
tra ding</w>
初 级</w>
tra ffic</w>
塞 内
de ter
co de</w>
正 规</w>
Ap pe
低 于</w>
St an
sa w</w>
t ,</w>
用 品</w>
匈 牙
un employment</w>
chem icals</w>
沙 特
备 忘
b and</w>
in tention</w>
规 定
e k</w>
a .</w>
金融 机构</w>
塞内 加尔</w>
substan ces</w>
li ability</w>
i e</w>
劳 工
摊 款</w>
百分 比</w>
撒 哈拉</w>
identi fying</w>
Com prehensive</w>
Univers al</w>
per cent</w>
loo king</w>
depend ence</w>
Tun isi
re views</w>
被 告</w>
en vis
Nep al</w>
u ally</w>
li v
Sub committee</w>
N S</w>
discrimin atory</w>
manag ers</w>
chil d
f ec
atten d</w>
名 义</w>
彻 底</w>
se ment</w>
Mov ement</w>
e ds</w>
ga p</w>
1 %</w>
后 来</w>
be hind</w>
第四 次</w>
黎 加</w>
哥 斯达
r ing</w>
备忘 录</w>
五 年</w>
案 例</w>
abl ed</w>
值 得</w>
Strateg ic</w>
CN. 9</w>
accep table</w>
For ces</w>
建设 性</w>
Erit rea</w>
卖 淫</w>
哥斯达 黎加</w>
s is
供应 商</w>
2 5
询 问</w>
he re
no thing</w>
tic ally</w>
亚美 尼亚</w>
Span ish</w>
粮 农
affec ting</w>
val uation</w>
ti an</w>
sy n
selec tion</w>
re construction</w>
t ot
1 2.
职 业
jud ge</w>
su me</w>
s ale</w>
speak ers</w>
fa ther</w>
动 物</w>
一 天</w>
粮农 组织</w>
di d
前 景</w>
哈 萨
期 望</w>
Ser bia</w>
乌 拉圭</w>
ign s</w>
publ ic
E ar
fir m</w>
propor tion</w>
尊 严</w>
气 体</w>
印 发</w>
deploy ed</w>
pow ers</w>
believ es</w>
S P</w>
G iv
常 常</w>
他 们
2 3
ap p
in ju
去 年</w>
共 体</w>
decla red</w>
提 名</w>
阻 止</w>
S ha
本 届</w>
特 性</w>
寻 找</w>
oc curred</w>
Den mark</w>
sc en
生态 系统</w>
lec tual</w>
Prof essional</w>
R educ
in struc
最 初</w>
reiter ated</w>
safegu ards</w>
经 验
ex pe
con tain</w>
一 套</w>
innov ative</w>
comb ined</w>
欧 元</w>
ment .</w>
生 物
ex ports</w>
prin cipal</w>
并 未</w>
V er
雇 主</w>
约 束
4 %</w>
1 11</w>
Angol a</w>
近 东</w>
排 除</w>
中 有</w>
建 造</w>
prepar atory</w>
E A
放 弃</w>
schedul ed</w>
罗 马</w>
U ru
图书 馆</w>
P lat
ut es</w>
Del eg
农 业
已 有</w>
事 业</w>
密切 合作</w>
Venezu ela</w>
en se</w>
E ach</w>
mak ers</w>
br inging</w>
8 ,
norm al</w>
核 定</w>
loc ked</w>
Budge tary</w>
regul arly</w>
Sen eg
consult ative</w>
内 罗
海 关</w>
六 届</w>
护 理</w>
Res olution</w>
Peo ples</w>
dis t
corpor ate</w>
ol der</w>
cap abilities</w>
Acc ord
N ow</w>
san itation</w>
back ground</w>
10 3</w>
char ges</w>
Recogn izing</w>
限 度</w>
动 员</w>
Cambo dia</w>
repres ent</w>
联 络</w>
认 真</w>
acqu isi
ab ol
E M</w>
dou b
还 要</w>
强 制
contro ls</w>
agg reg
B ec
内罗 毕</w>
E ffec
rec alled</w>
汇 编</w>
萨 尔
CON F.
Bu il
id ity</w>
viol ated</w>
W TO</w>
Orig inal</w>
Uru gu
g or
f ru
Exper t</w>
大不 列颠</w>
improv ements</w>
IO S</w>
总 数</w>
reme dies</w>
信息 系统</w>
坦 桑
si l
Iraq i</w>
o v</w>
c up
事 先</w>
越 南</w>
ac cid
perpetr ators</w>
N ai
严 重
囚 犯</w>
our ing</w>
应 付</w>
ar ri
soci o</w>
D ay</w>
judic i
银 行
斯洛 伐
匈牙 利</w>
普 遍
we ak
一 家</w>
preven tive</w>
th ank</w>
10 4</w>
f ish
Add .2</w>
审 计
cer tif
In de
驻 地</w>
mar ked</w>
Al ban
教 学</w>
照 顾</w>
s qu
exam ined</w>
se as</w>
or an
inter im</w>
Tran si
Sm all</w>
所 列</w>
国际 法庭</w>
exp and</w>
特 遣队</w>
observ er</w>
Lan ka</w>
der iv
pro gres
m oun
construc tive</w>
nam es</w>
isc al</w>
the ory</w>
G han
prison ers</w>
委 员</w>
Ap pl
o x
Gre ece</w>
In formal</w>
gener ation</w>
guarante es</w>
buil t</w>
Em ploy
In dependent</w>
A d</w>
Tor ture</w>
t on
DC s</w>
sear ch</w>
em en</w>
el abor
会 上</w>
Strength ening</w>
遵 循</w>
补 贴</w>
概 算</w>
in fl
工 会</w>
j a</w>
si mul
大 会
U se</w>
ex tr
de p
ne y</w>
运 用</w>
expan ded</w>
Sal v
前 往</w>
Coordin ator</w>
人 员
C ur
lat est</w>
loo ked</w>
ac compan
oph ob
dispu tes</w>
2 7
四 条</w>
耶 路
事 故</w>
man age</w>
foc al</w>
国 防
耶路 撒
S .</w>
位 于</w>
rel atively</w>
B riti
wri ting</w>
附 近</w>
私 营</w>
通 讯</w>
r ich</w>
相 反</w>
与此 同时</w>
敏 感</w>
ment ally</w>
de a
n ine</w>
re t</w>
Ch em
捷 克共和国</w>
phen omen
f arm
9 ,
1 st</w>
t ely</w>
许 可</w>
Inv est
自 我</w>
di v
加 纳</w>
e. g.</w>
对 待</w>
Briti sh</w>
8 %</w>
拉 斯</w>
Prepar atory</w>
补 偿</w>
Portu gal</w>
us al
exten sive</w>
tion ,</w>
导 言</w>
advoc acy</w>
I V
hop ed</w>
V III</w>
trans actions</w>
掌 握</w>
缔 结</w>
主 张</w>
C lim
ho c</w>
constra ints</w>
出 于</w>
O IOS</w>
飞 行</w>
ul ar</w>
成 年人</w>
文 化
su red</w>
ent al</w>
bur den</w>
发 放</w>
enn ial</w>
at tit
自然 灾害</w>
si le</w>
T ask</w>
指 数</w>
Jer usal
rob i</w>
Ta king</w>
重 大
监 督
新加 坡</w>
m its</w>
au di
Nai robi</w>
ic it</w>
Tan z
这 么</w>
加 速</w>
人 人</w>
两 次</w>
ide as</w>
d own
外国 人</w>
k en</w>
不 人道</w>
问 责
F oundation</w>
spe ak</w>
科 技
A P
sec toral</w>
bus in
10 6</w>
正 义</w>
ass em
ec h
U p
b ig
深 入</w>
N AT
fin e</w>
移 交</w>
cap it
it or</w>
gr ant</w>
man dated</w>
Statis tics</w>
e ous</w>
出 生</w>
保 险
继 续
当 选</w>
沙特 阿拉伯</w>
pre mis
exten sion</w>
Ol ym
tro op</w>
ov a</w>
conc ep
multi ple</w>
man i
身 体</w>
apor e</w>
联 络
gra de</w>
耶路撒 冷</w>
198 2</w>
旅 游</w>
settle ments</w>
b all</w>
复 员</w>
0 1</w>
lin k
Sing apore</w>
te dly</w>
198 7</w>
完 善</w>
be aring</w>
重 复</w>
取 代</w>
n d</w>
imprison ment</w>
最高 法院</w>
6 %</w>
ur s</w>
多 种</w>
ref er</w>
短 期</w>
no ting</w>
Urugu ay</w>
sum ption</w>
ple 's</w>
198 5</w>
pil ot</w>
tour ism</w>
陈 述</w>
utiliz ation</w>
appe ar</w>
萨尔 瓦
Seneg al</w>
ti vities</w>
Giv en</w>
per form</w>
cover ing</w>
L at
fe a
ec osy
Con trac
时 代</w>
中 非
ad s</w>
lig ence</w>
ass isting</w>
st ems</w>
profes sion
共 有</w>
Viol ence</w>
staff ing</w>
经济 体</w>
每 月</w>
id ation</w>
me t
h un
i tions</w>
萨尔瓦 多</w>
H am
1 30</w>
多 少</w>
judici ary</w>
10 8</w>
1 12</w>
R ica</w>
objec t</w>
0 s</w>
gra ve</w>
un ique</w>
L ist</w>
收 益</w>
show ed</w>
equ ity</w>
海洋 法</w>
告 知</w>
s mo
pan el</w>
ig ned</w>
incre ases</w>
志愿 人员</w>
削 减</w>
ne ws</w>
Rom ania</w>
201 6</w>
i ting</w>
Dis trict</w>
Clim ate</w>
Accord ingly</w>
L DCs</w>
charac ter</w>
毁 灭
ma p</w>
dr in
Jerusal em</w>
with draw
oc ational</w>
航 空</w>
可 持续性</w>
satell ite</w>
lin ks</w>
vi de
国 民
内 陆</w>
fi xed</w>
Mea sures</w>
爆 炸</w>
part ner</w>
吸 引</w>
wel fare</w>
麻 醉
vari ety</w>
campa igns</w>
约束 力</w>
ac tually</w>
duc tion</w>
两 名</w>
at ar</w>
NG O</w>
关 心</w>
描 述</w>
性 暴力</w>
ti ally</w>
al es</w>
旅 游
B r
1 1.
N otes</w>
机 场</w>
hel ped</w>
becom ing</w>
英 文</w>
废 除</w>
Mechan ism</w>
实 验</w>
生 活
der ing</w>
获 悉</w>
为 期</w>
Par is</w>
Incre ased</w>
claim ed</w>
qu ick
Stat ute</w>
semin ars</w>
关 联</w>
巴 黎</w>
every one</w>
en de
exc ep
Is su
some times</w>
现 代
基 准</w>
M EN
u d</w>
问责 制</w>
两 种</w>
营 养</w>
heav y</w>
h us
cho ice</w>
Kaz akh
C C</w>
pres cri
dign ity</w>
ept ance</w>
10 7</w>
毁灭 性</w>
exam ples</w>
ev ision</w>
加 剧</w>
ro les</w>
安 置</w>
内 部
失 业</w>
b ing</w>
作 业</w>
S w
Parag raph</w>
IO NS</w>
O R
adjust ment</w>
讲 话</w>
Sci ence</w>
fig ures</w>
as set</w>
失 去</w>
P ap
消费 者</w>
on line</w>
d ,</w>
de ad
个 人
Ara bia</w>
专门 知识</w>
g ar
re ti
周 年</w>
control led</w>
dom in
E ven</w>
D omin
ar ance</w>
l ying</w>
足 以</w>
s cre
不 论</w>
好 处</w>
M au
V ic
ed onia</w>
纲 要</w>
dre w</w>
jo ined</w>
arre sted</w>
gu n</w>
a i</w>
reaffir med</w>
SB I</w>
o ts</w>
b ab
康 复</w>
O ut
Oc cup
W G
Armen ia</w>
邻 国</w>
fac ts</w>
Bol i
com pris
13 73</w>
commun ic
会计 准则</w>
尼 加拉
gir l</w>
各 类</w>
许可 证</w>
fin ding</w>
标 准
强 化</w>
亚 太
j i</w>
尼加拉 瓜</w>
保 加
coordin ating</w>
ne arly</w>
Tanz ania</w>
N am
交 通
Pl anning</w>
trans mitted</w>
Integr ated</w>
阿尔 巴
lo ad</w>
st ress</w>
过 渡
五 个</w>
回 答</w>
所 谓</w>
情 形</w>
重 于</w>
t esting</w>
Bul g
Tunisi a</w>
Sa fety</w>
v al</w>
马 尔
imp unity</w>
att ached</w>
inspec tion</w>
arbitr ary</w>
E quality</w>
2 4
Ri ght</w>
玻利 维亚</w>
innov ation</w>
as signed</w>
Addi tional</w>
program ming</w>
out lined</w>
suff ering</w>
Ac tivities</w>
associ ation</w>
缺 少</w>
设 置</w>
ver sion</w>
反 腐败</w>
boo ks</w>
国际 贸易</w>
Sou thern</w>
qu ite</w>
nutri tion</w>
加 上</w>
资源 管理</w>
ar ag
Kazakh stan</w>
lim its</w>
re ve
Sl ov
ar m</w>
暂 停</w>
w on</w>
distribu ted</w>
sel ling</w>
父 亲</w>
工作 者</w>
sequ ently</w>
vulner ability</w>
bal anced</w>
Olym p
m ac
世界 各地</w>
broad er</w>
bor n</w>
cust oms</w>
am bi
雇 用</w>
Observ er</w>
1 14</w>
extre me</w>
Fol low</w>
Ex cell
en ophob
tra ined</w>
e ed</w>
患 者</w>
auth ors</w>
曾 经</w>
民主 主义
s cri
o dy</w>
认 定</w>
操 作</w>
自 动</w>
Rus sia</w>
re al
协 同</w>
F re
mod alities</w>
很 少</w>
law ful</w>
sav ings</w>
l ining</w>
eas y</w>
有 着</w>
g aps</w>
im port</w>
Num ber</w>
method ology</w>
U R
可 以
交 付</w>
rele ased</w>
Ghan a</w>
据 称</w>
保 持
C ity</w>
is ation</w>
Mal i</w>
说 ，
主 办</w>
朝鲜 民主主义
充 足</w>
oci de</w>
Minis terial</w>
on ization</w>
subjec ted</w>
优 势</w>
载 于</w>
I X</w>
ig i
loc ations</w>
P u
贸易 法</w>
se ems</w>
expl ore</w>
1 13</w>
H aving</w>
budge ts</w>
有 害</w>
s am
hap pen
精 神
deman ds</w>
检 测</w>
let ters</w>
g y
s l
恐 怖</w>
Plat form</w>
Hung ary</w>
larg ely</w>
Oper ation</w>
余 额</w>
ende av
怀 疑</w>
n it
以 此</w>
sev ere</w>
mobil ization</w>
cur ricul
调 解</w>
Bud get</w>
斯洛伐 克</w>
ti me
创 建</w>
m iddle</w>
up date</w>
Soci ety</w>
direc ted</w>
角 色</w>
责 任
char ged</w>
En g
改 为</w>
super vision</w>
retur ned</w>
man aged</w>
分 庭</w>
J e
1 15</w>
beli ef</w>
- -
s pread</w>
承 包
f ront</w>
per mit</w>
发 射</w>
repres ents</w>
C P.
积极 参与</w>
radi o</w>
associ ations</w>
斯洛 文
地 理</w>
f iscal</w>
外交 部长</w>
v inc
多 米
pollu tion</w>
indic ates</w>
南 南
ori ented</w>
提 醒</w>
air e</w>
哈萨 克斯坦</w>
minis terial</w>
cohe rence</w>
jo in</w>
an i</w>
ed .</w>
PR O
pro gram</w>
联 邦
recogn izes</w>
各 项
排 雷</w>
保加 利亚</w>
产 妇</w>
obil ization</w>
re aching</w>
cons ci
中非 共和国</w>
F as
anti cip
im parti
differen ce</w>
pres erv
设 在</w>
attemp t</w>
we b</w>
城 市
1 16</w>
serv ed</w>
2 nd</w>
pro stitution</w>
国际 法院</w>
没 有
ro r</w>
iqu es</w>
ID B.
sec tions</w>
i .
acquisi tion</w>
处 决</w>
多米 尼
M ong
分 钟</w>
交 通</w>
S an</w>
T ai
Pro vi
Sim il
subsequ ently</w>
UNO PS</w>
B oth</w>
mon thly</w>
P un
vehic le</w>
星 期</w>
C lo
投资 者</w>
St ud
Ex pres
reflec ts</w>
首 长</w>
human ity</w>
CA P</w>
间 接</w>
正 是</w>
导 弹</w>
UN R
cor responding</w>
F u
喀 麦
L ocal</w>
Mon day</w>
m itting</w>
re patri
单 方面</w>
tre ated</w>
top ics</w>
附 加</w>
残 忍</w>
Agricul ture</w>
explain ed</w>
under ing</w>
Ad vis
援助 团</w>
毛里 求
分 布</w>
sh el
t om
强 奸</w>
中 央
acc eptance</w>
peri ods</w>
ine es</w>
sim ply</w>
强 调
南南 合作</w>
t ou
称 为</w>
家 人</w>
Ho c</w>
儿 童
transf erred</w>
sim ple</w>
in side</w>
培 养</w>
武 力</w>
acces sible</w>
constitu tes</w>
demonstr ated</w>
fig ure</w>
Fri day</w>
bo ys</w>
Fin ance</w>
裁 定</w>
职 人员</w>
ti n</w>
dis trict</w>
着 手</w>
s la
des tin
时间 表</w>
ST A</w>
Nic arag
re sumed</w>
决 权</w>
dec ade</w>
nation als</w>
渠 道</w>
foc using</w>
pe ti
动 力</w>
T ar
ing ,</w>
de tained</w>
中 华
问 题
也 门</w>
cl in
定 居
R ed</w>
p ha
d in
年 轻
遣 返</w>
us er</w>
Salv ador</w>
soldi ers</w>
por ted</w>
Sl oven
发 生
le y</w>
朝鲜民主主义 人民共和国</w>
士 兵</w>
努 力
car bon</w>
ab road</w>
化 学</w>
Op en</w>
el igi
不 应</w>
仇 外</w>
lear n</w>
学 家</w>
持 久
valu able</w>
in stead</w>
污 染
牙 买
u an</w>
联合国 开发计划署</w>
直 到</w>
H ol
融 合</w>
li ghts</w>
laun ch</w>
ivers ary</w>
1 18</w>
逐 渐</w>
le ge</w>
v .</w>
保 存</w>
早 期</w>
变 革</w>
Th rough</w>
Chan ge</w>
serv ing</w>
m y
deliber ations</w>
协商 一致</w>
喀麦 隆</w>
func tional</w>
k er</w>
Wor k</w>
gra ding</w>
痛 苦</w>
Com p
l eng
转 型</w>
im bur
curren cy</w>
毛里求 斯</w>
en em
er a</w>
bi ological</w>
何 种</w>
invol ve</w>
cur y</w>
com ment</w>
卡塔 尔</w>
as sign
元 首</w>
Commun ications</w>
O m
SB STA</w>
sta y</w>
believ ed</w>
ac ked</w>
Mau riti
法 行为</w>
小 学</w>
S ol
不 够</w>
Q atar</w>
处 境</w>
Mong ol
R O
Indu stri
tro duce</w>
un g</w>
him self</w>
bud s
发 达</w>
An aly
solid arity</w>
prohib ited</w>
over come</w>
土 著
pre ne
bal ances</w>
relev ance</w>
S elf</w>
w on
compe tence</w>
自 治
Ky oto</w>
一 方</w>
Th en</w>
洗 钱</w>
1 17</w>
Boli via</w>
非 常
' t</w>
comp ati
is es</w>
轻 武器</w>
Represent atives</w>
结 构
有 罪</w>
d ation</w>
cl ean</w>
京 都</w>
CA T</w>
比 率</w>
ov ers</w>
退 化</w>
he ar</w>
阿尔巴 尼亚</w>
有 辱</w>
seg ment</w>
筹 备
do or</w>
tu re
至 于</w>
十 五届</w>
不得 不</w>
reg ards</w>
su ffered</w>
事 态</w>
Mo del</w>
pass ed</w>
S S</w>
No t</w>
转 递</w>
一 国</w>
1 22</w>
fo ster</w>
continu ous</w>
专 业
计算 机</w>
文 本</w>
谈 会</w>
Su b</w>
A L</w>
bi d</w>
w ing</w>
无 论
ple d
dep th</w>
equiv al
dec line</w>
Bec ause</w>
Con stitu
rel ative</w>
pl us</w>
负责 人</w>
ci ve</w>
审 评</w>
O ver</w>
将 来</w>
体 育</w>
交 易
丰 富</w>
D j
dou ble</w>
integr ate</w>
Cam ero
行政 当局</w>
&apos; d</w>
看 来</w>
um p</w>
it ations</w>
a o</w>
第二 个</w>
大 陆</w>
容 性</w>
k ept</w>
tri ed</w>
乌 兹
有 用</w>
n a
旅 费</w>
es pread</w>
Reaffir ming</w>
om mun
pap ers</w>
RA L</w>
com position</w>
st ages</w>
ard ous</w>
Or gan
细 胞</w>
大 型</w>
c ement</w>
f ish</w>
rem ote</w>
拖 延</w>
乌兹 别
experi enced</w>
ti ci
Secretary -
配 置</w>
ter n</w>
soci eties</w>
有 关
dis abled</w>
academ ic</w>
af ter
斯洛文 尼亚</w>
st y
las ting</w>
i. e.</w>
ch e
b ad</w>
安 装</w>
农 民</w>
perform ed</w>
odi ver
le aving</w>
召 集</w>
A S</w>
乍 得</w>
Wel comes</w>
成 效</w>
formul ated</w>
hel ping</w>
di ag
sur face</w>
ess or</w>
牙买 加</w>
终 了</w>
th or
知识 产权</w>
techn iques</w>
d ness</w>
Lib yan</w>
qual ified</w>
war ning</w>
ac commod
b ound</w>
w age</w>
wit nesses</w>
pen sion</w>
Mauriti us</w>
contr ary</w>
de pos
oper ate</w>
if y</w>
mor ning</w>
sti mul
stre am</w>
conserv ation</w>
国 别</w>
后 者</w>
commod ity</w>
先 前</w>
目 录</w>
bre ak</w>
vol ume</w>
全 国
seri ously</w>
conduc ting</w>
C o</w>
recommen d</w>
Turk ish</w>
histor ical</w>
C l
翻 译</w>
UNR WA</w>
Pe acebuilding</w>
giv es</w>
法 典</w>
odiver sity</w>
B is
1 40</w>
ro se</w>
Excell ency</w>
spons ors</w>
as h</w>
S han
Ar med</w>
E st
extrem ely</w>
p .m</w>
deal t</w>
te sts</w>
inter vention</w>
汇 报</w>
一 半</w>
香 港</w>
bound ary</w>
预算 外</w>
F P</w>
ha i</w>
Pur su
il ing</w>
动 态</w>
inter ventions</w>
ha ps</w>
as ing</w>
cu tting</w>
li es</w>
de dic
现 状</w>
de tec
b ot
f ur
w ife</w>
tem per
complain t</w>
ur s
活 性</w>
职 权
反 对
un ilateral</w>
matern al</w>
h um
A .
fri ends</w>
科 技</w>
重 新
尔 多
her it
g ate</w>
e ts</w>
har m</w>
红 十
sp ir
stor age</w>
wid espread</w>
r s</w>
f ast</w>
转 变</w>
hol der</w>
competi tive</w>
P age</w>
必 要性</w>
共 享</w>
quick ly</w>
envis aged</w>
近 年来</w>
强调 指出</w>
汇 率</w>
ann iversary</w>
ent re
得 出</w>
紧 张</w>
形 势</w>
did n</w>
dea ths</w>
larg er</w>
embar go</w>
Is land</w>
第一 届</w>
独 特</w>
m atic</w>
trans national</w>
er ted</w>
organiz e</w>
极 为</w>
schem e</w>
fe d
总 结</w>
Over sight</w>
ak ia</w>
Bulg aria</w>
pro s
灵 活</w>
Wh y</w>
几内 亚
spe ed</w>
M is
sal es</w>
b om
随 时</w>
pl ant</w>
li ons</w>
Un der
e ply</w>
法 索</w>
air space</w>
Sloven ia</w>
马 拉
intel lectual</w>
appe ars</w>
in sufficient</w>
premis es</w>
U z
月 份</w>
另 一方面</w>
inv itation</w>
semin ar</w>
offic er</w>
净 额</w>
h ur
Environ mental</w>
出 口
ad oles
公 里</w>
m ale</w>
dec ades</w>
hi bition</w>
i ons</w>
解 除
Aud itors</w>
fed eral</w>
社会 保障</w>
ad d</w>
repres enting</w>
tr ying</w>
资 金
问 责</w>
han ds</w>
1 19</w>
比 赛</w>
evalu ate</w>
爆 炸
b ad
w an</w>
avo id
201 7</w>
生 命
殖民 化</w>
协调 一致</w>
jur y</w>
or al</w>
v ocational</w>
ill u
barri ers</w>
L ith
es sive</w>
ES CAP</w>
时 限</w>
性 能</w>
订 立</w>
cro s
Inter governmental</w>
re sident</w>
elec ommun
各 个
航 空
1 .1</w>
liber ty</w>
schedul e</w>
0 5</w>
figh ting</w>
南 亚</w>
Camero on</w>
Encoura ges</w>
Cu st
电 视
reli able</w>
197 8</w>
re ality</w>
立 陶
Afgh an</w>
骚 扰</w>
invest ors</w>
推 行</w>
pati ents</w>
C ER
赞 比亚</w>
P s</w>
处 置</w>
o a</w>
世 贸
in troduce</w>
纪 念</w>
t own</w>
绩 效</w>
ev i
坚 定</w>
t ack
N am</w>
sp ent</w>
守 则</w>
地 带</w>
ev en
指 导
for tun
农 村
a h
under taking</w>
ten eg
西班 牙
W ar</w>
变 成</w>
Jama ica</w>
艺 术</w>
b ra
plat form</w>
re imbur
f ishing</w>
cam ps</w>
单 一</w>
us h
prom oted</w>
Mon teneg
罪 犯</w>
影 响
想 要</w>
节 目</w>
i ther</w>
这 类</w>
始 终</w>
负 债</w>
execu tion</w>
解 放
rap e</w>
orig in
税 收</w>
不 结
分 列</w>
On ly</w>
L B</w>
V .</w>
kin a</w>
sou thern</w>
min utes</w>
I l
测 量</w>
Treat ment</w>
吉 尔
dis posal</w>
坚 决</w>
gre en</w>
Nicarag ua</w>
偿 还</w>
有 机</w>
u sted</w>
ta bles</w>
enophob ia</w>
Vi et</w>
an e</w>
穷 人</w>
appe als</w>
前 提</w>
err ing</w>
2 .1</w>
Uz be
har d
Six th</w>
prepar ations</w>
conven tional</w>
deliv er</w>
注 册</w>
9 %</w>
W ed
inven tory</w>
K ar
i er</w>
索 赔
多 次</w>
E mer
企 图</w>
方 便</w>
U .
ma d</w>
ograph ic</w>
adop ting</w>
Lith u
缺 陷</w>
铭 记</w>
s co
上 空</w>
benef ici
sm all
Stan ding</w>
Inv estig
til ity</w>
b on
IN G</w>
fin anced</w>
Reg ion</w>
金 属</w>
199 5
18 0</w>
adver se</w>
cris es</w>
Fif ty</w>
c ing</w>
produc tivity</w>
Y emen</w>
f oundation</w>
三 分
部 门
op position</w>
be ar</w>
健 康
success fully</w>
领 空</w>
d ay
签 名</w>
教 授</w>
管理 人员</w>
C. 4</w>
极 端</w>
gh t
任 职</w>
o k
discipl inary</w>
出 售</w>
Coun try</w>
世贸 组织</w>
s outh</w>
id ly</w>
m id
degra dation</w>
董 事会</w>
布 基
Ear th</w>
sal ary</w>
边 境</w>
幅 度</w>
engine ering</w>
1 23</w>
联 刚</w>
dang erous</w>
公 路</w>
incorpor ated</w>
) .</w>
mean ing</w>
sp an</w>
Issu es</w>
监察 员</w>
resid ence</w>
某 种</w>
for ums</w>
Bur kina</w>
布基 纳
off ers</w>
mun ition</w>
H u
布基纳 法索</w>
FO R</w>
失 业
法 语</w>
消 息</w>
地 域</w>
ed ural</w>
Th urs
great ly</w>
par ame
stoc ks</w>
wan ted</w>
198 1</w>
marg in
第六 十
sub stance</w>
普 通
be au
sum mar
e i</w>
acknowled ged</w>
巴勒斯坦 人</w>
植 物</w>
jun ction</w>
1 60</w>
格 式</w>
工 艺</w>
Wat er</w>
贩 卖</w>
组 合</w>
效 应</w>
Tra fficking</w>
跟 踪</w>
si ties</w>
蒙 古</w>
s ay
tel evision</w>
Offic ial</w>
纳 米
ra d
ast al</w>
Ba h
Fas o</w>
vill age</w>
ha bit
1 25</w>
法 定</w>
ur it
粮食 安全</w>
生 存</w>
总 值</w>
w ished</w>
D on</w>
关 闭</w>
长 期
Buil ding</w>
Joh n</w>
bel ong
警 方</w>
out reach</w>
de ep
proper ly</w>
探 索</w>
支 持
model s</w>
T re
迄 今</w>
indi rec
n omin
wi der</w>
否 则</w>
取 得
mess age</w>
物 资</w>
ex emp
Reduc tion</w>
文 章</w>
国 外</w>
Con f
绝 对</w>
friend ly</w>
C D
着 重</w>
ex ha
z ones</w>
缓 解</w>
tern s</w>
clu ster</w>
Le ague</w>
删 除</w>
adv ancement</w>
永 远</w>
vinc ed</w>
withdraw al</w>
排 放
ol onization</w>
犯 下</w>
tr ack</w>
黑 山</w>
C an</w>
其 他
规 章</w>
accompan ied</w>
circul ated</w>
der ly</w>
职权 范围</w>
Mongol ia</w>
非 殖民化</w>
， 并
支 援</w>
投 诉</w>
re ply</w>
此 项</w>
电 视</w>
扩 展</w>
A h
当事 人</w>
C A</w>
hy dro
相 关
Pro liferation</w>
reiter ates</w>
包 容性</w>
习 惯</w>
out put</w>
1 21</w>
塔 吉
遗 产</w>
mach in
Wed n
星期 一</w>
hosp it
简 化</w>
cu r</w>
Mo z
解除 武装</w>
B er
su itable</w>
Ur ges</w>
tal ks</w>
En h
外交 部</w>
og o</w>
nor th</w>
inde ed</w>
想 法</w>
dec lar
Pursu ant</w>
respon d
互 联网</w>
y l</w>
Guid elines</w>
g ain</w>
tr act</w>
R em
级 别</w>
星期 五</w>
entre prene
统计 数据</w>
常 会</w>
ph ot
连 续</w>
实 质</w>
noti ce</w>
马 其
法律 援助</w>
Ass ess
ma ster</w>
mo ment</w>
su spec
d or
star ting</w>
制 造
ed ,</w>
应 有</w>
行 星</w>
To day</w>
l ar</w>
in o</w>
prec ed
sh r
经验 教训</w>
感 觉</w>
配 合</w>
new ly</w>
视 察</w>
Rac ial</w>
历 史
sugg estions</w>
fe ar</w>
莫 桑
b ile</w>
莫桑 比
d ar
d ance</w>
id ent</w>
allow ance</w>
Z im
expres ses</w>
Ta j
个 别</w>
p ill
这 份</w>
polic y
安全 部队</w>
开 幕</w>
in put</w>
综 合
津 巴布
加 工</w>
Employ ment</w>
conclud e</w>
相 当
军 备</w>
第 八
w ind
发展 权</w>
fa ith</w>
照 料</w>
im per
S ettle
in adequate</w>
pa ir</w>
签 订</w>
多样 化</w>
Slov akia</w>
第二 届</w>
巴 拿
马 耳
W ell</w>
很 快</w>
N ar
industri es</w>
Ma j
fe atures</w>
adequ ately</w>
ri ties</w>
比 绍</w>
san ds</w>
男女 平等</w>
1. 2</w>
索赔 人</w>
sen d</w>
am es</w>
ann ex
专 题
resol ved</w>
f ile</w>
依 靠</w>
总 干事</w>
Ger man</w>
本 人</w>
p age</w>
Inde ed</w>
安全 理事会</w>
r d</w>
L E
al ,</w>
deter i
consider ations</w>
Proc ess</w>
pe ace
integr al</w>
du al</w>
ste ad
promis e</w>
ev ol
St ock
ju ven
Om buds
区域 合作</w>
minis tries</w>
vo ting</w>
st abil
b es</w>
例 外</w>
区 别</w>
quar ter</w>
竞争 力</w>
首 席</w>
purch ase</w>
Z ambia</w>
男 孩</w>
Bus iness</w>
吉尔 吉
披 露</w>
inde x</w>
Y outh</w>
马耳 他</w>
民 事</w>
un iver
Tu esday</w>
维 护
R ad
in tolerance</w>
199 6
信 通</w>
莫桑比 克</w>
lo ans</w>
197 3</w>
S E
dedic ated</w>
婴 儿</w>
O P
感 兴趣</w>
Recommend ation</w>
c ast</w>
大 大</w>
exc ell
Def ence</w>
Con ventions</w>
常 规
不 妨</w>
ner g
Occup ied</w>
参 数</w>
tor ate</w>
一 场</w>
Thurs day</w>
文 明</w>
丧 失</w>
fac ility</w>
任何 人</w>
可 用</w>
年 轻</w>
m id</w>
有 益</w>
明 确
参 照</w>
f ications</w>
contin gent</w>
核 可</w>
pe acebuilding</w>
an ci
we ight</w>
极 大</w>
促 成</w>
fra g
To k
ation s,</w>
员 工</w>
sa u</w>
T al
Proc edure</w>
多 地</w>
stu died</w>
house hold</w>
te ers</w>
s le
IN F</w>
国际 标准</w>
亚太 经
k il
s ory</w>
mo bile</w>
杀 害</w>
odi ties</w>
gain s</w>
ti veness</w>
Te am</w>
19 49</w>
阐 明</w>
inter action</w>
M ain
津巴布 韦</w>
oura ble</w>
inst all
咨询 服务</w>
UNC IT
O N</w>
p ain
farm ers</w>
Monteneg ro</w>
特 派</w>
sh ar
mer cury</w>
瓦 尔</w>
15 3</w>
c au
高 于</w>
不 良</w>
miti gation</w>
tal k</w>
any thing</w>
Bis sau</w>
0 7</w>
non -
Ch ris
coun sel</w>
第二 条</w>
什 么
Head s</w>
没 收</w>
requ esting</w>
ex ac
gen u
UNCIT RAL</w>
内部 监督</w>
a head</w>
prohi bition</w>
1 24</w>
Am ong</w>
res ear
H .
ass isted</w>
thou sands</w>
har m
摩 尔多
Me th
f ell</w>
g gl
爱 沙
h ot
li ance</w>
dev oted</w>
buil dings</w>
Wedn esday</w>
失 败</w>
被 迫</w>
198 4</w>
tra in</w>
ab solu
vis ited</w>
行 事</w>
it ec
名 称</w>
dang er</w>
recogn izing</w>
行 为
grat ul
C s</w>
繁 荣</w>
战 斗
各 位</w>
F un
mov ing</w>
比 如</w>
z a</w>
R ome</w>
hom es</w>
20 20</w>
enem y</w>
， 但
pat terns</w>
bl ood</w>
com posed</w>
转 交</w>
必要 措施</w>
objec ts</w>
d uration</w>
guarante ed</w>
还 应</w>
祝 贺</w>
Lithu ania</w>
ple ased</w>
Dec ision</w>
b ol
变 动</w>
Invest ment</w>
动 机</w>
Rom a</w>
fri end</w>
brief ing</w>
B ri
邮 件</w>
bun als</w>
res erve</w>
infl ation</w>
inv o
b orders</w>
C had</w>
w all</w>
F o
定 罪</w>
er ial</w>
C la
i ents</w>
j e
diver si
季 度</w>
ne ither</w>
简 报</w>
Leg isl
negoti ation</w>
用 水</w>
温 室</w>
多 哈</w>
Zim bab
dynam ic</w>
har ass
公 报</w>
ic ity</w>
审 查
结 论
Indi an</w>
指 挥
宗 教
ex tradition</w>
mov ements</w>
CR P
结 果
m ur
ap ping</w>
特 网</w>
绿 色</w>
立 法
13 8</w>
prom p
平 等
几内亚 比绍</w>
en cies</w>
1 .</w>
so il</w>
wee k
Ri o</w>
G s</w>
十 三届</w>
fir ms</w>
Do ha</w>
退 休</w>
belong ing</w>
干 旱</w>
Sch ool</w>
M old
exc ee
实 验
B al
年轻 人</w>
风 险
exc eption</w>
allow ing</w>
质 疑</w>
reme dy</w>
ac king</w>
忽 视</w>
out puts</w>
equival ent</w>
ste in</w>
link ages</w>
杀 伤</w>
est e</w>
持 有</w>
产 业</w>
立陶 宛</w>
flexi ble</w>
Uzbe k
diag no
怀 孕</w>
house holds</w>
bre ak
fi re
13 2</w>
继 承</w>
爱沙 尼亚</w>
M ain</w>
St res
c overs</w>
土 地
wor th</w>
根 源</w>
equ ally</w>
库 存</w>
se em</w>
cho ose</w>
就业 机会</w>
Ky r
选 出</w>
ond on</w>
ep h
pat tern</w>
rap idly</w>
demonstr ate</w>
Palestin ians</w>
org an</w>
determin ing</w>
C I</w>
o k</w>
下 去</w>
im age</w>
P R</w>
flexi bility</w>
ar my</w>
hear ing</w>
c ra
MI S
or iti
有效 性</w>
N US
占 领
our g</w>
Consi deration</w>
联合 共和国</w>
领 取</w>
开 会</w>
estim ate</w>
T D</w>
或 许</w>
iv er</w>
丈 夫</w>
sh op</w>
UN D
期 内</w>
贝 宁</w>
来 看</w>
oper ative</w>
Kyr gy
W FP</w>
profession als</w>
编 列</w>
贫 困
adjust ments</w>
oun ds</w>
Trans port</w>
所 属</w>
re min
appl ying</w>
东 部</w>
ris ing</w>
吉尔吉 斯
coun tri
Elec tion</w>
侵 略</w>
L ondon</w>
13 4</w>
rejec ted</w>
projec ted</w>
流 程</w>
坦桑 尼亚
信 心</w>
dem obilization</w>
restric ted</w>
Y our</w>
ou ght</w>
入 侵</w>
phenomen on</w>
拉 脱
call ing</w>
col d</w>
常规 武器</w>
ing .</w>
坦桑尼亚 联合共和国</w>
十 届</w>
毫 无
Assess ment</w>
us h</w>
M ay
ri d</w>
p ped</w>
进 度</w>
cust ody</w>
An nu
该 法</w>
G od</w>
pol y
lab or
. 3</w>
Uzbek istan</w>
commen ded</w>
因 特网</w>
受 伤</w>
all evi
Prov isional</w>
decid es</w>
脆 弱
合 物</w>
Develop ed</w>
re vision</w>
mor al</w>
响 应</w>
pre jud
结论 性</w>
y i
accur ate</w>
0 9</w>
纪 律</w>
Jap anese</w>
requ iring</w>
e ded</w>
mon y</w>
W il
go es</w>
拉脱 维亚</w>
sy nerg
at trac
ke ts</w>
机 构
Mac edonia</w>
ar ts</w>
e -
cap able</w>
reven ue</w>
psych ological</w>
mani fe
Ac ting</w>
liv eli
se as
del e
N evertheless</w>
ag ents</w>
ref ers</w>
con gratul
gi ble</w>
draw ing</w>
SA S</w>
四 年</w>
cont em
u c
con junction</w>
提高 认识</w>
Con tribu
fe es</w>
ur ge</w>
dig ital</w>
循 环</w>
arbit ration</w>
sign ing</w>
分 散</w>
ver b
en rol
迄 今
re struc
S c
deta inees</w>
其 余</w>
E CO
bu y</w>
升 级</w>
愿 望</w>
review ing</w>
advant ages</w>
I N</w>
law yers</w>
il ian</w>
illu str
传 染
Deleg ations</w>
fish eries</w>
Moz ambi
to x
疟 疾</w>
conf identi
L este</w>
est er
signific ance</w>
招 募</w>
co astal</w>
ch ann
2 .</w>
cop ies</w>
Pan ama</w>
金 额</w>
对 策</w>
ul ts</w>
ge tting</w>
form at</w>
S an
之 内</w>
H el
面 积</w>
easi ly</w>
穆 斯
Stat ement</w>
价 格
2. 2</w>
L aw
假 设</w>
proc edural</w>
coun tr
1 28</w>
ob vi
transf ers</w>
heal thy</w>
acc ession</w>
饥 饿</w>
Advis er</w>
at mos
ad ing</w>
explan ation</w>
Alban ia</w>
营 养
T akes</w>
提 升</w>
du pl
诉 讼
Annu al</w>
ti ous</w>
ish ments</w>
ta il</w>
oc ks</w>
ad he
ans wer</w>
应 当
pro tocol</w>
An n
presid ential</w>
di ff
Em pha
bi odiversity</w>
接 近</w>
allow s</w>
the sis</w>
h our</w>
现代 化</w>
15 5</w>
C er
理 想</w>
亚太经 社会</w>
维 修</w>
Mul ti
Zimbab we</w>
列 为</w>
i v</w>
A D
la undering</w>
B an
参 加
pros per
E valuation</w>
stric t</w>
脆弱 性</w>
18 2</w>
15 40</w>
rec alls</w>
首 要</w>
busin esses</w>
manufac turing</w>
m aritime</w>
Th ree</w>
Pro cu
Mold ova</w>
Ben in</w>
平 均
ey es</w>
不 久</w>
Yugosla v</w>
re place</w>
项 目
Comm ittees</w>
判 例</w>
oran dum</w>
ot yp
197 0</w>
O EC
M A</w>
deta il</w>
mach ine</w>
排放 量</w>
一致 性</w>
沟 通</w>
ti le</w>
aggres sion</w>
dev ices</w>
能 源
behavi our</w>
Dru g</w>
怎 样</w>
fore sts</w>
债 权
sovere ign</w>
l ists</w>
清 除</w>
着 重
Constitu tional</w>
定 为</w>
当事 方</w>
空 中</w>
consolid ated</w>
自 决</w>
comm it</w>
宏 观
区 分</w>
manag ing</w>
连 接</w>
re cip
0 3</w>
结 婚</w>
remov al</w>
form ing</w>
oc cur</w>
独立 性</w>
Industri al</w>
H igh
十 二届</w>
trans mit</w>
W G</w>
P over
备 金</w>
e x</w>
T ru
a th
expan ding</w>
巴 林</w>
dis placement</w>
Mal ta</w>
ud es</w>
海 外</w>
诊 断</w>
relation ships</w>
作 物</w>
happ y</w>
vo ice</w>
消 耗</w>
stru gg
sim pl
pres ents</w>
其 他人</w>
machin ery</w>
真 的</w>
习 俗</w>
G EF</w>
H R
发 了</w>
创 造
great est</w>
档 案</w>
thin king</w>
consolid ation</w>
份 额</w>
C ross</w>
病 人</w>
every thing</w>
over view</w>
1 26</w>
朝 鲜</w>
紧急 情况</w>
所 有权</w>
gr ati
Mozambi que</w>
个 月</w>
hus band</w>
haz ardous</w>
constitu ted</w>
捐助 国</w>
cro w
www. un.org</w>
E l
mod ul
accoun table</w>
星期 四</w>
adminis tering</w>
Pover ty</w>
ing ton</w>
la id</w>
sub missions</w>
Coun ter</w>
Inv ites</w>
repatri ation</w>
0 8</w>
水 资源</w>
defin e</w>
巴拿 马</w>
Taj ik
标 题</w>
pack age</w>
He ad</w>
ten th</w>
Shan g
Conc ern
履 行
per taining</w>
li br
L og
化学 武器</w>
spen ding</w>
被 占
Lu x
hosp ital</w>
被占 领土</w>
负 有</w>
viol ent</w>
duc t</w>
自 从</w>
n ur
Procu rement</w>
see ks</w>
业 务
能 否</w>
Pro vision</w>
九 届</w>
C S
197 9</w>
过 度</w>
南 方</w>
男 人</w>
解决 方案</w>
arran gement</w>
详 细
合 格</w>
ggl ing</w>
查 阅</w>
咨 商</w>
man dat
巴 拉圭</w>
eval uations</w>
ch ron
C al
proce ed</w>
ou red</w>
g one</w>
D ist
oo d
海 上</w>
w illing</w>
pul sory</w>
c ents</w>
歧 视
extra budgetary</w>
Fac il
策 略</w>
fo ot
封 锁</w>
全 权</w>
领 袖</w>
等 待</w>
under stood</w>
H y
物 体</w>
侧 重于</w>
纳米 比亚</w>
加 大</w>
E sti
识 别</w>
之 二</w>
13 5</w>
rel ate</w>
I cel
纠 正</w>
um b
O S
h in
1 ,000</w>
卢 森
现 场</w>
ation s.</w>
再 生
w ill
Em ir
id a</w>
chi ef</w>
培训 班</w>
investig ated</w>
frequ ently</w>
代表 性</w>
ai ting</w>
理 事</w>
冰 岛</w>
transl ation</w>
id em
pat h</w>
ex po
cooper ative</w>
距 离</w>
生 态</w>
交 流
care er</w>
言 论
布 尔</w>
respon ded</w>
trans mitting</w>
穆斯 林</w>
b ill</w>
compris ing</w>
禁 运</w>
g ame</w>
支 柱</w>
correc t</w>
1 27</w>
journ alists</w>
separ ation</w>
Comm er
produc ing</w>
en ship</w>
ste re
D u
制 约</w>
沿 海</w>
破 产</w>
f le
univers ity</w>
轨 道</w>
bi ennial</w>
1 29</w>
倡 导</w>
的 确</w>
in jury</w>
explo sive</w>
mean ing
Y et</w>
分 析
is ol
移 动</w>
vide o</w>
enforc ed</w>
enti als</w>
Res ource</w>
人权 宣言</w>
现 已</w>
包 容</w>
暂 时</w>
mac ro
ES C
dis cre
星期 二</w>
st ers</w>
国内 法</w>
儿 子</w>
mo tiv
) ,</w>
排 斥</w>
0 6</w>
关 押</w>
re alize</w>
联合国 大会</w>
municip al</w>
tion ary</w>
transi tional</w>
乌兹别 克斯坦</w>
宝 贵</w>
nor thern</w>
re feren
政 权</w>
登记 册</w>
公 认</w>
会 谈</w>
is s
surve ys</w>
e astern</w>
fra me</w>
4 8
pos s
de eply</w>
Domin ican</w>
MD Gs</w>
run ning</w>
时 至</w>
pre f
z ing</w>
assess ing</w>
H. E.</w>
灾 难</w>
必 需</w>
V al
算 法</w>
deriv ed</w>
均 衡</w>
a sion</w>
ci a</w>
Parag u
马其 顿
h ung
ac ity</w>
inc enti
Lux emb
多 边
Pro gress</w>
Lat via</w>
有 限
tur ned</w>
dec entr
tric ity</w>
dol lar</w>
IP SAS</w>
广 播</w>
所 在</w>
卢森 堡</w>
家 属</w>
on ial</w>
小 行星</w>
离 职</w>
决策 者</w>
强 大</w>
Tajik istan</w>
违 背</w>
大 幅</w>
电 影</w>
星期 三</w>
With in</w>
13 3</w>
生产 总值</w>
草 坪</w>
f iled</w>
酋 长
伦 敦</w>
妻 子</w>
stoc k
尽 早</w>
custom ary</w>
be gun</w>
s low</w>
T E
劳工 组织</w>
众 多</w>
ari o</w>
grat eful</w>
ses sional</w>
言论 自由</w>
受 益
neighb ouring</w>
f ill</w>
rati o</w>
G C.
帐 户</w>
马其顿 共和国</w>
d less</w>
IM F</w>
所 在
国家 元首</w>
ann ually</w>
be red</w>
as sive</w>
in puts</w>
gener ated</w>
做 到</w>
classi fication</w>
洪 都
Dist r</w>
Transi tional</w>
OEC D</w>
工作 文件</w>
harass ment</w>
L im
客 观</w>
regi on
schem es</w>
program s</w>
kin ds</w>
永 久</w>
酋长 国</w>
t ments</w>
对 付</w>
巴 塞尔</w>
ri ya</w>
consum er</w>
养 护</w>
Six ty</w>
C re
a e</w>
altern atives</w>
teach er</w>
发 挥
tin e</w>
arch itec
Emir ates</w>
den ied</w>
解 除</w>
fe el
autonom ous</w>
P at
cohe rent</w>
六 条</w>
Docu ment</w>
comple tely</w>
经济 委员会</w>
we red</w>
read ing</w>
co tic</w>
歧视 性</w>
Inspec tion</w>
repor tedly</w>
洪都 拉斯</w>
固 定</w>
facilit ated</w>
d able</w>
w r
制 品</w>
Simil arly</w>
gener ate</w>
地 震</w>
k o</w>
A ir</w>
trans mission</w>
Ap pro
Ou ter</w>
enter ing</w>
i ers</w>
del ays</w>
tru th</w>
i ds</w>
t esti
学 会</w>
pre sident</w>
会 费</w>
loo ks</w>
T ION</w>
绑 架</w>
用 以</w>
resid ents</w>
T R
席 位</w>
或 是</w>
3 .1</w>
人权 法</w>
appl ies</w>
Luxemb ourg</w>
no tification</w>
sti c</w>
2. 5</w>
analy tical</w>
connec ted</w>
S ession</w>
B et
D ata</w>
regar ded</w>
管理 系统</w>
Educ ational</w>
attribu table</w>
environ mentally</w>
questi onn
原 则
Est onia</w>
Organiz ed</w>
Le ast</w>
符 合
u t</w>
Re ports</w>
hung er</w>
bur g</w>
ge dly</w>
迫 切
格 林
renew ed</w>
R ob
occa sion</w>
facil itation</w>
stres ses</w>
reflec ting</w>
ef ul
th coming</w>
in stances</w>
所 得</w>
Stat ements</w>
S U
对 外</w>
renew able</w>
provin ces</w>
mod ern
pri oriti
abl es</w>
wh ite</w>
s par
we ak</w>
ten sion</w>
conf ron
政府 首脑</w>
regar dless</w>
expl oration</w>
An ti</w>
复 原</w>
cap ability</w>
so red</w>
chec k</w>
anticip ated</w>
谈 到</w>
作 品</w>
裁 谈会</w>
H ond
免 遭</w>
expl ain</w>
rec ur
contin uation</w>
普 查</w>
super vis
men ting</w>
这 场</w>
wast es</w>
vac ancy</w>
a us
amoun ted</w>
听 到</w>
Hond ur
consult ants</w>
提 出
相当 于</w>
t rou
eph one</w>
ra y</w>
organiz ing</w>
prev ail
观 测</w>
感 到
fo res
色 情</w>
阿拉伯 联合
distin c
产 品
formul ate</w>
def enders</w>
ba bly</w>
强 有力</w>
la h</w>
B ot
dro p</w>
同 等</w>
in dis
差 别</w>
ro ot</w>
f air
营 地</w>
un ion</w>
st ant</w>
阿拉伯联合 酋长国</w>
信 号</w>
intel ligence</w>
3 rd</w>
tion .</w>
be l</w>
Dis abilities</w>
bo y</w>
incid ent</w>
do es
14 1</w>
政 策
a ke</w>
苏 丹
J u
s ports</w>
. 6</w>
发 给</w>
enti eth</w>
未 成年人</w>
第六 条</w>
Au dit</w>
回 到</w>
bi an</w>
ld n</w>
in curred</w>
Be fore</w>
别 人</w>
writ e</w>
x enophobia</w>
ta r</w>
吉 布
人 群</w>
pl ays</w>
Sup pl
Econ om
tili ties</w>
b at
f res
aspec t</w>
e br
不 管</w>
Jama hi
16 9</w>
作出 贡献</w>
W P.
ar ded</w>
L and</w>
推 出</w>
考 试</w>
ben ch
由 此</w>
we st
becom es</w>
gran ts</w>
合 适</w>
r ary</w>
安全 部门</w>
reserv es</w>
Tai wan</w>
A U</w>
说 法</w>
童 工</w>
incenti ves</w>
污染 物</w>
非 国家</w>
ib ia</w>
Reg arding</w>
宏观 经济</w>
li abilities</w>
塔吉 克斯坦</w>
con du
指 称</w>
h i</w>
leng th</w>
I TA
灭 绝</w>
活 动
temper ature</w>
九 条</w>
选 定</w>
Emer gency</w>
comm and</w>
N at
negoti ating</w>
lic en
compl ex
撤 销</w>
标 志</w>
ti tle</w>
高 效</w>
B ro
填 补</w>
aw i</w>
Cor ruption</w>
审查 会议</w>
w ards</w>
play ing</w>
dimen sions</w>
P a
Appe als</w>
prof it</w>
G ab
价值 观</w>
该 部</w>
Pro tocols</w>
no w
暂 行</w>
alle gedly</w>
Nam ibia</w>
l ov
V .
fin ds</w>
R a
198 3</w>
W ash
分 歧</w>
Shang hai</w>
1 31</w>
We b</w>
实 例</w>
mis sing</w>
放 射
acceler ate</w>
D on
contrac tual</w>
doub t</w>
Ar ms</w>
秘 密</w>
西 方</w>
强制 性</w>
questi on
e ans</w>
再生 能源</w>
issu ance</w>
辅 助</w>
I R
a ult</w>
cul tiv
re ts</w>
恐怖 分子</w>
AT ION</w>
inv ite</w>
Jamahi riya</w>
S em
in equality</w>
sol id</w>
提 起</w>
强 制</w>
下 述</w>
小 组
contin ent</w>
会 晤</w>
财 富</w>
dec isi
compati ble</w>
mu tually</w>
distin gu
条 文</w>
eligi ble</w>
we ather</w>
st op
隔 离</w>
distin ction</w>
pos ing</w>
Paragu ay</w>
k i</w>
provi ders</w>
很 难</w>
1994 年</w>
Coun c
tex ts</w>
harm ful</w>
e fin
根 本
声 音</w>
not ably</w>
aw ard</w>
servic ing</w>
recei pt</w>
collec ted</w>
en e</w>
m ly</w>
和平 利用</w>
sh ift</w>
graph y</w>
st ering</w>
s low
技术 转让</w>
St u
应 用
am munition</w>
回 收</w>
C enter</w>
定居 点</w>
te sted</w>
e rely</w>
毛 额</w>
ex changes</w>
m ation</w>
mo stly</w>
abs or
di vision</w>
ban king</w>
stere otyp
H ou
氧 化
sugg est</w>
r ation
wh at
pursu ed</w>
Mig ration</w>
上 帝</w>
不 罚</w>
pr ud
P ris
联合国 环境
subjec ts</w>
一 贯</w>
spec ies</w>
16 2</w>
就 是
Dj ib
sum mit</w>
popul ar</w>
hand ling</w>
种 种</w>
批 评</w>
1. 5</w>
加 共和国</w>
战 斗</w>
b att
al ing</w>
选 民</w>
监 察</w>
多 哥</w>
初 次</w>
fav ourable</w>
犯罪 行为</w>
当 中</w>
试 点</w>
w il
d ul
f la
联合国环境 规划署</w>
acc um
head ed</w>
Ar my</w>
商 务</w>
gen e
cop y</w>
列 支
ep idem
Icel and</w>
执 法
Recommend ations</w>
表 格</w>
生 计</w>
Mon tre
敦 士
alle l</w>
Bas el</w>
弱 势
列支 敦士
harmon ization</w>
pul sion</w>
mov ed</w>
世界 人权宣言</w>
proper ties</w>
超 出</w>
UNA MI
约 束</w>
se ized</w>
i ef</w>
倾 向</w>
incorpor ate</w>
spon sored</w>
权 能</w>
observ ation</w>
in s
driv en</w>
世界 卫生组织</w>
接 收</w>
申 明</w>
terror ists</w>
tin g
地 方
oc cur
国际 劳工组织</w>
灵 活性</w>
P C</w>
H ouse</w>
medi ation</w>
Pen al</w>
Secretary- General</w>
B ran
西 岸</w>
ati zation</w>
0 ,000</w>
电 脑</w>
appe ared</w>
Wor k
ori entation</w>
届 会</w>
ri c</w>
13 6</w>
ri s</w>
二 条</w>
利 尔</w>
instruc tions</w>
pro spects</w>
16 6</w>
开 办</w>
re move</w>
Hondur as</w>
C iv
学 科</w>
le a
多米尼 加共和国</w>
accord ingly</w>
表 面</w>
stand ardi
l ing
efin gs</w>
a qu
家庭 成员</w>
dimen sion</w>
re placed</w>
ag as
弱势 群体</w>
Ar e</w>
dis charge</w>
Prov ince</w>
FD I</w>
14 2</w>
1993 年</w>
联合国 总部</w>
com pulsory</w>
U. S.</w>
全球 性</w>
restruc turing</w>
under lying</w>
lia ison</w>
dis aggreg
univer sities</w>
Bah rain</w>
列支敦士 登</w>
mobil ize</w>
合法 性</w>
Ar bit
tan gible</w>
B an</w>
认 证</w>
mon etary</w>
合 组织</w>
pre val
fo rec
ex clusion</w>
港 口</w>
民 兵</w>
Add .4</w>
可 是</w>
w ood</w>
至 今</w>
司 长</w>
f as
exis ts</w>
comb ination</w>
Y es</w>
On ce</w>
Ombuds man</w>
土 库
jud gement</w>
per fec
assem bly</w>
mat ely</w>
某 个</w>
e di
pro bably</w>
农村 妇女</w>
de emed</w>
增长 率</w>
圆 桌
val id</w>
Organiz ations</w>
， 这
编 辑</w>
一 词</w>
l ap
attemp ts</w>
spe ech</w>
ear th
补 助
pl ants</w>
种 植</w>
Settle ments</w>
comm odities</w>
斯 加</w>
s and</w>
Rel ations</w>
程 序
lim itations</w>
expo sure</w>
意 图</w>
G ren
增 编</w>
A ir
fil ment</w>
depriv ed</w>
亚 太</w>
fin ally</w>
Analy sis</w>
圆桌 会议</w>
在 线</w>
propor tion
elec tricity</w>
MO NU
def ici
司法 部</w>
genu ine</w>
中 学</w>
pat ro
A L
ever ,</w>
仲 裁
年 初</w>
ar ti
美 元
鼓 舞</w>
交 给</w>
land locked</w>
G ra
Add. 3</w>
国 政府</w>
列 表</w>
K h
蒙特 利尔</w>
view ed</w>
St ri
por tion</w>
难民 营</w>
Wel coming</w>
钻 石</w>
吉布 提</w>
高等 教育</w>
第十 四条</w>
批 款</w>
occup ying</w>
necess ity</w>
w are</w>
适 用
替 代
担 忧</w>
onn a</w>
an cies</w>
Montre al</w>
D E
cont acts</w>
concep ts</w>
ro c
引 发</w>
s mu
基 会</w>
e z</w>
刑事 法庭</w>
admis sible</w>
计 量</w>
2 35</w>
Gu ide</w>
债权 人</w>
f al
clos er</w>
comb at
senten ced</w>
y ou
ch ers</w>
刺 激</w>
ren tly</w>
香 港
等 等</w>
恰 当</w>
t l
stan ds</w>
ab uses</w>
st er
周 围</w>
格林 纳
rel ates</w>
实验 室</w>
地 区
ech ten
condu cive</w>
经 营
out i</w>
dis mis
dissemin ate</w>
13 9</w>
配 偶</w>
strong er</w>
gro w</w>
Li echten
no on</w>
设 定</w>
不结 盟
ast ly</w>
care fully</w>
employ ers</w>
declar ations</w>
prescri bed</w>
Ba sic</w>
conf isc
革 命</w>
改 造</w>
bo x</w>
m us
rati fy</w>
阿 卜
sign ature</w>
Volun tary</w>
第三 届</w>
ful filment</w>
li fe
4 th</w>
Inter im</w>
Empha siz
se emed</w>
以色 列
B C</w>
着重 指出</w>
sol ve</w>
Chin a
含 有</w>
T ER
parame ters</w>
Fr anc
无 害</w>
trans action</w>
e u
削 弱</w>
ic ated</w>
bl ed</w>
Cap acity</w>
cons ists</w>
e en</w>
最 为</w>
直 至</w>
cap e</w>
发 表
secu rities</w>
it ly</w>
depen d</w>
T ob
hou ses</w>
mar ried</w>
n om
cha in</w>
M i
pre ce
k y</w>
Liechten stein</w>
13 7</w>
， 我
14 3</w>
d ating</w>
利 率</w>
introduc ing</w>
参与 者</w>
任 用</w>
斐 济</w>
per s</w>
名 字</w>
用 作</w>
Trans national</w>
Sen ior</w>
大 西
adv ances</w>
respec ted</w>
provin cial</w>
散 发</w>
g old</w>
七 条</w>
Ar ticles</w>
inter ference</w>
盟 约</w>
金融 危机</w>
enc ing</w>
中 部</w>
pro spec
sty le</w>
新 型</w>
F C</w>
I T</w>
D r
u tr
A C
gen cies</w>
应 由</w>
v ent</w>
inv ites</w>
重 要
termin ation</w>
活 力</w>
特 使</w>
cel ebr
迄今 为止</w>
requ is
爆 发</w>
Wash ington</w>
there to</w>
suffici ently</w>
广 告</w>
a x
Ta ke</w>
Reaffir ms</w>
G ol
lead er</w>
指导 方针</w>
con vinced</w>
ay ed</w>
Cust oms</w>
M S
mandat ory</w>
Kyrgy z
Fre ed
实 物</w>
对 性</w>
desi re</w>
iv es</w>
下 放</w>
ow s</w>
min or</w>
b ic</w>
0 2</w>
照 会</w>
吉尔吉斯 斯坦</w>
des ertification</w>
O h</w>
G S</w>
UN IT
mil lions</w>
bran ch</w>
Pr in
Comb at</w>
核 实</w>
不 当</w>
自 己
增 多</w>
Cor por
objec tion</w>
跨 界</w>
旅游 业</w>
Djib outi</w>
2 2
sur ro
论 述</w>
y al</w>
& l
&l t;</w>
ester day</w>
destro yed</w>
reduc tions</w>
collec t</w>
res or
Con tents</w>
免 受</w>
不结盟 运动</w>
学 术</w>
west ern</w>
f light</w>
情 况
en shr
accommod ation</w>
授 予</w>
D an
单 元</w>
w est</w>
v otes</w>
stre et</w>
5 ,000</w>
援 引</w>
expe di
流 行
conven ing</w>
船 舶</w>
pic ture</w>
多 斯</w>
them es</w>
14 5</w>
is tical</w>
， 在
inter active</w>
Con ven
小 企业</w>
草 稿</w>
最 低
Dec ree</w>
薪 酬</w>
Statis tical</w>
prejud ice</w>
wr ong</w>
S ar
M os
优 化</w>
关 系
分 段</w>
德 里</w>
2. 3</w>
计划 生育</w>
中 非</w>
par allel</w>
PR ST</w>
di am
C op
s pr
手 术</w>
sha res</w>
B h
网 上</w>
土库 曼
im possible</w>
power ful</w>
G ood</w>
Chem ical</w>
如 今</w>
gu il
G ran
健 全</w>
自由 化</w>
世界 贸易
sp ap
人 为</w>
得 不到</w>
En sure</w>
土库曼 斯坦</w>
hu ge</w>
马 达
瓦 纳</w>
通 货
爆炸 物</w>
IG H
d il
trans formation</w>
w in</w>
mo bility</w>
受 害</w>
acqu ired</w>
覆 盖</w>
15 7</w>
T ogo</w>
s ;</w>
3 .2</w>
plo y</w>
Coun ty</w>
emphasiz e</w>
liter acy</w>
切 实
divi ded</w>
体 育
电 信</w>
E very</w>
ow ever,</w>
vo y</w>
马达 加
怎 么
麻醉 药品</w>
Med ical</w>
sol ven
ch ance</w>
完 全
juven ile</w>
emphasiz es</w>
联邦 政府</w>
Kyrgyz stan</w>
17 0</w>
经 合组织</w>
ir s</w>
re y</w>
clear ance</w>
B l
c ell</w>
ad ian</w>
知 情</w>
联 黎</w>
fre ely</w>
ed ly</w>
admis sibility</w>
Lib er
心 理
主管 部门</w>
Pro per
p ass</w>
准 入</w>
N LB</w>
依 法</w>
巴 巴
bri ef</w>
a .m</w>
职 类</w>
tim ate</w>
pro mul
迫切 需要</w>
wel l
S igned</w>
调查 结果</w>
acc red
en dum</w>
Con sequently</w>
德 班</w>
Pro hibition</w>
消 灭</w>
tain ment</w>
excell ent</w>
mo thers</w>
第七 条</w>
con stant</w>
Gen er
AC. 109</w>
clos ing</w>
dri ve</w>
MI NU
目 前
meaning ful</w>
accompl ishments</w>
n ings</w>
利 润</w>
head ing</w>
Al liance</w>
Ad op
in sul
ten d</w>
el ab
空 气</w>
te en</w>
rein forc
Stud y</w>
5 th</w>
citiz en</w>
opin ions</w>
h it</w>
核 试验</w>
p tions</w>
顺 利</w>
frequ ency</w>
D om
游 戏</w>
eiv ed</w>
电 台</w>
g onna</w>
tow ard</w>
14 4</w>
同 次</w>
N A</w>
了 。</w>
propos e</w>
tel ephone</w>
三 条</w>
is s</w>
per haps</w>
ou l
Up on</w>
elab oration</w>
基金 组织</w>
可 行
彼 此</w>
残疾 儿童</w>
Conf lic
197 4</w>
面 向</w>
博 茨
一 所</w>
清 理</w>
y ah</w>
普 及</w>
intensi fy</w>
真 相</w>
Particip ation</w>
青 年人</w>
警 告</w>
de par
there on</w>
cy cl
尊 重
马达加 斯加</w>
I U</w>
空 间
预防 性</w>
先 进</w>
土著 人</w>
下 面</w>
ro p
sub paragraph</w>
序 言</w>
ill ance</w>
另 有</w>
UNIF IL</w>
el ev
ef s</w>
联合国 儿童
东 耶路撒冷</w>
覆 盖
联 塞</w>
inv asion</w>
H ave</w>
每 次</w>
保 安</w>
im migration</w>
di e</w>
than ks</w>
s ely</w>
or dered</w>
su n
log istical</w>
ac i
Bi ological</w>
科学 家</w>
wit ness</w>
每 日</w>
不 幸</w>
wan a</w>
regis ter</w>
some one</w>
万 人</w>
近 期</w>
代 价</w>
strugg le</w>
bri dge</w>
sch ol
Stand ards</w>
stud ent</w>
stric tly</w>
sh e
expec tations</w>
经 社
mu sic</w>
beau ti
联合国儿童 基金会</w>
necess arily</w>
D ra
de tection</w>
as tic</w>
补助 金</w>
Al i</w>
赠 款</w>
3 3
15 6</w>
For mer</w>
萨 摩
gain ed</w>
危 险
入 境</w>
197 5</w>
14 7</w>
sec t</w>
ric h
J our
短 缺</w>
supple mentary</w>
l ay</w>
从 未</w>
citiz enship</w>
pregn ancy</w>
14 6</w>
R iver</w>
尼日 尔</w>
15 1</w>
Gre ek</w>
根 据
发言 人</w>
复 杂
19 60</w>
bri efings</w>
adver ti
Adv ancement</w>
z z
in human</w>
ti mately</w>
manufac ture</w>
冻 结</w>
hop es</w>
expec t</w>
博茨 瓦纳</w>
herit age</w>
迹 象</w>
pris ons</w>
细 节</w>
repl ies</w>
gen ocide</w>
m ot
福 祉</w>
fre ez
cha m
any one</w>
OD A</w>
疑 问</w>
parlia mentary</w>
巴巴 多斯</w>
p are
我 会</w>
or ally</w>
C iti
pers istent</w>
X V</w>
inju red</w>
there of</w>
targe ting</w>
非 正规</w>
invol ves</w>
Sec ond
ho sted</w>
re alized</w>
guid ed</w>
Nig er</w>
D urban</w>
需 要
secu red</w>
F .</w>
标准 化</w>
s in
性 虐待</w>
bre ach</w>
benefici aries</w>
摆 脱</w>
华 盛
t ude</w>
M ag
言 论</w>
Acc ess</w>
. 5</w>
appropri ation</w>
pos es</w>
prov ince</w>
F ig
im pose</w>
管理 层</w>
suff er</w>
各 种
不 断
macro economic</w>
Log istics</w>
联合国 秘书处</w>
被 捕</w>
国 会</w>
Direc torate</w>
这 位</w>
certain ly</w>
MONU C</w>
检 验</w>
CR P.
v ast</w>
每 一</w>
pro p
I d
gradu ally</w>
gen tly</w>
Bot s
煽 动</w>
工 厂</w>
第三 方</w>
exc essive</w>
特 权</w>
保 障
certain ty</w>
买 卖</w>
ing ness</w>
科技 咨询</w>
s li
ne utr
t elecommun
ef ire</w>
fra ud</w>
does n</w>
马尔 代
女 人</w>
主 教</w>
目 的
Fac ility</w>
圭 亚
depen ds</w>
施 加</w>
t ari
at er
通货 膨
sci enti
Im prov
S pe
Sahar a</w>
N on
网 络
辩 护</w>
意 思</w>
st one</w>
ther ap
ar ming</w>
每 周</w>
g ated</w>
utiliz ed</w>
上 海</w>
J os
欧洲 委员会</w>
4 7
保 密</w>
兄 弟</w>
S hi
M un
per mitted</w>
off set</w>
S it
增 加
st ory</w>
所 有
disaggreg ated</w>
PA D</w>
k es</w>
descri ption</w>
diver se</w>
pres ent
be t</w>
严 格
， 而
compar ison</w>
世界贸易 组织</w>
elimin ating</w>
第十 届</w>
振 兴</w>
地 图</w>
马拉 维</w>
克 斯</w>
1. 3</w>
ur o</w>
关 税</w>
proce eds</w>
law yer</w>
compl ement</w>
degra ding</w>
回 返</w>
罗 姆
民 警</w>
文 职人员</w>
z h
J ust</w>
预 定</w>
通 过
new spap
drin king</w>
bl ack</w>
下 次</w>
Cy pri
国家 联盟</w>
combat ants</w>
V ir
re placement</w>
萨摩 亚</w>
巡 逻</w>
sk y</w>
建 立
il eg
辐 射</w>
competi tiveness</w>
缴 款</w>
故 事</w>
M c
Bots wana</w>
吸 收</w>
达 成
fil m</w>
fac es</w>
197 7</w>
经社 理事会</w>
An ti
6 th</w>
will ingness</w>
UNIF EM</w>
ar ise</w>
consisten tly</w>
A lig
sa ve</w>
储 备</w>
制 度
Offic ers</w>
pro of</w>
re mun
诉 诸</w>
marke ting</w>
be ings</w>
re fra
庆 祝</w>
分 担</w>
co al</w>
ce as
风险 管理</w>
Bar bad
advant aged</w>
产 量</w>
mil iti
mo ment
Mr s.</w>
4 9
马尔代 夫</w>
明 白</w>
免 疫</w>
cle an
权 限</w>
sugge sts</w>
t ons</w>
脱 离</w>
Legisl ative</w>
cam p</w>
剩 余</w>
commer ce</w>
gh ter</w>
无 效</w>
日 常</w>
追 求</w>
摩尔多 瓦
摩尔多瓦 共和国</w>
日 本
priv ileg
尽 量</w>
inten sive</w>
pos session</w>
log istics</w>
g est</w>
uni ons</w>
音 乐</w>
h ot</w>
领 土
所 示</w>
stipul ated</w>
f oo
Tar get</w>
开 列</w>
hospit als</w>
yan a</w>
k illing</w>
有 待</w>
A rea</w>
2 51</w>
En ter
2 70</w>
Establ ishment</w>
see kers</w>
me rely</w>
for thcoming</w>
Fi ji</w>
coun t</w>
Olymp ic</w>
我 谨</w>
B ill</w>
干 涉</w>
复 苏</w>
圭亚 那</w>
j i
id ad</w>
At omic</w>
y n
比 额</w>
Go al</w>
15 4</w>
I ran
购 置</w>
房 屋</w>
conf ig
convic tion</w>
y o</w>
Dis aster</w>
Sec tor</w>
支 配</w>
as sume</w>
15 2</w>
缩 小</w>
赔 偿
展 示</w>
al ition</w>
西 撒哈拉</w>
联 利</w>
4 .1</w>
毛里 塔
m al</w>
低 收入</w>
指挥 官</w>
ex ual</w>
conven e</w>
canc er</w>
Bol iv
玻利 瓦尔</w>
分 离</w>
Reg ulation</w>
弱 势</w>
Y e
f for
sel l</w>
Bet ween</w>
earth qu
me ant</w>
medic ine</w>
fortun ately</w>
Re iter
时 ，
el derly</w>
al ian</w>
cru el</w>
行政 部门</w>
lab or</w>
G ar
筹备 工作</w>
Ma urit
优 惠</w>
Ag ainst</w>
15 8</w>
La o</w>
cha p</w>
作 者</w>
coun selling</w>
较 大</w>
除 外</w>
Commun ication</w>
10 %</w>
布 鲁
约 翰
municip alities</w>
生产 力</w>
speak er</w>
pro tocols</w>
Con clusion</w>
ob serve</w>
pregn ant</w>
证 件</w>
Clo sed</w>
cul tures</w>
经 理</w>
li e</w>
跨 国
判 处</w>
仇 恨</w>
NE PAD</w>
过 来</w>
L es
Barbad os</w>
Me an
上 次</w>
ste el</w>
阿 布
医 学</w>
foc uses</w>
vill ages</w>
rein force</w>
g ri
2 42</w>
ref used</w>
enh ouse</w>
不 安</w>
友 好</w>
sis tence</w>
L astly</w>
tor ies</w>
budge ting</w>
ic itly</w>
y our
运 输
尽 管
Mad agas
ro ll</w>
ex pulsion</w>
时 刻</w>
de ad</w>
图 像</w>
临 床</w>
regim es</w>
无 线
c ard</w>
团 长</w>
证 券</w>
satisfac tory</w>
pres erve</w>
atmos phere</w>
Pun ishment</w>
选 举
remov ed</w>
19 61</w>
e ast</w>
solven cy</w>
siz ed</w>
Consul tative</w>
g a</w>
on y</w>
发挥 作用</w>
dis par
appro ve</w>
中国 政府</w>
其 后</w>
o th
consequ ence</w>
analy ses</w>
m acy</w>
Dem ocr
权 益</w>
enh ancement</w>
R u
受 到
on wealth</w>
Lib ya</w>
国务 院</w>
te l</w>
d am</w>
分 为</w>
不 同
海 事</w>
毛里塔 尼亚</w>
Kore an</w>
comp il
地 址</w>
Con duct</w>
当 代</w>
squ are</w>
高 质量</w>
议 院</w>
职 权</w>
system atically</w>
Boliv arian</w>
subsi dies</w>
50 %</w>
entr usted</w>
integr ating</w>
共同 努力</w>
to m</w>
处 理
夫 人</w>
en ever</w>
si bly</w>
CER D</w>
sec ret</w>
L A</w>
指 挥</w>
总 务</w>
rev it
liber alization</w>
殖民 地</w>
本 着</w>
选 择
机 遇</w>
adoles cents</w>
Ac adem
certif icate</w>
Rec or
as sumed</w>
R IGH
五 条</w>
car ri
力 求</w>
论 文</w>
it ative</w>
s we
驳 回</w>
Madagas car</w>
种 类</w>
局 面</w>
防 范</w>
Qu estion</w>
as pir
R w
欣 见</w>
持久 性</w>
v is</w>
0 4</w>
中 美洲</w>
ob taining</w>
tion ers</w>
os ting</w>
Stri p</w>
min ent</w>
dec ent</w>
clari fy</w>
内 政
停 火</w>
_ _
attit udes</w>
发 动</w>
ou d</w>
报 酬</w>
月 底</w>
Di alogue</w>
safegu ard</w>
su m</w>
difficul ty</w>
首 都</w>
so ft</w>
enshr ined</w>
cha ired</w>
中 间</w>
mem orandum</w>
ó n</w>
中 亚</w>
寿 命</w>
reaffir ms</w>
199 0s</w>
学 率</w>
ro ads</w>
衣 服</w>
penal ties</w>
H ai
足 球</w>
法律 文书</w>
US D</w>
P riv
裂 变</w>
p ip
en coun
addres ses</w>
家 园</w>
suspec ted</w>
consul t</w>
新 兴</w>
20 8</w>
credi bility</w>
书 面
197 1</w>
百 万</w>
pare dness</w>
认 捐</w>
失业 率</w>
E ffor
修 建</w>
Proper ty</w>
矛 盾</w>
上 涨</w>
tic es</w>
fe ed
norm ally</w>
船 只</w>
indic ator</w>
under mine</w>
迫 使</w>
say ing</w>
会 见</w>
缴 纳</w>
次 数</w>
sal aries</w>
陷 入</w>
measu rement</w>
节 省</w>
整 合</w>
sa id
aus p
极 其</w>
基 督
阵 线</w>
tri als</w>
h oods</w>
Comm onwealth</w>
surve illance</w>
al gor
S O</w>
Rep ubl
直 升
工作 量</w>
Elec toral</w>
韩 国</w>
S A</w>
prosecu tors</w>
G E
Secretary General</w>
广 大</w>
所 用</w>
缓 慢</w>
Syri a</w>
2 20</w>
房 间</w>
Mal awi</w>
f ound
algor ith
博 士</w>
du rable</w>
Tr in
20 1</w>
n y</w>
L ev
C. 6</w>
Ex ternal</w>
环境 保护</w>
左 右</w>
访 问
ad ults</w>
总 共</w>
Stu dies</w>
sel f
dis advantaged</w>
必 不可
开 设</w>
re par
DC P</w>
im ag
decre ased</w>
合 理
small er</w>
O pen
第四 条</w>
一 件</w>
ausp ices</w>
运 送</w>
method ologies</w>
16 1</w>
there in</w>
un lawful</w>
联 科</w>
Inter ior</w>
基本 权利</w>
土 壤</w>
地 面</w>
20 %</w>
Sub .2</w>
基本 上</w>
under lined</w>
红十 字
紧 迫</w>
警察 部队</w>
编 号</w>
第五 次</w>
ur ch</w>
IC T
统 一
14 8</w>
an o</w>
Pen sion</w>
章 程</w>
闭 会</w>
L in
candi date</w>
institu tion
hol m</w>
in he
拉 加</w>
k new</w>
scho ol
w a</w>
arri ved</w>
Pro posed</w>
地 理
predic table</w>
常 规</w>
fac to</w>
第三 条</w>
联 检</w>
pos ite</w>
tw entieth</w>
Effor ts</w>
el se
plac ing</w>
f alling</w>
an der</w>
Bran ch</w>
西 部</w>
mem ory</w>
s s
d ry</w>
199 2
In tel
激 励</w>
G EN
Alig ned</w>
斯 特</w>
T V</w>
bi o
di ves</w>
Peo ple's</w>
补 编</w>
2 10</w>
Rec on
el se</w>
林 业</w>
层 次</w>
beauti ful</w>
cell s</w>
思 考</w>
页 次</w>
y esterday</w>
， 以
en comp
R am
房 子</w>
卫生 部</w>
usu al</w>
Gu yana</w>
围 绕</w>
end ar</w>
Wor kers</w>
indic ating</w>
斯 德
men tion</w>
D P
ess els</w>
contrac tors</w>
or m
Sam oa</w>
签 证</w>
判 断</w>
3. 3</w>
到 达</w>
in no
路 线
计算 机
P i
C T</w>
ran k</w>
im ports</w>
prom pt</w>
外 联</w>
3 8
he at</w>
C L
应 为</w>
emer gencies</w>
EA N</w>
d rought</w>
14 9</w>
Pro mo
UNAMI D</w>
N O
竞 赛</w>
治 安</w>
re marks</w>
采 纳</w>
chann els</w>
流 行</w>
off ering</w>
dist ance</w>
原子 能
Comm on</w>
要 点</w>
b i</w>
ab a</w>
置 于</w>
elec tric</w>
as sum
真 实</w>
禁 毒</w>
convic ted</w>
并 不
Mal dives</w>
Govern mental</w>
作出 努力</w>
部 委</w>
contrac ting</w>
J IU</w>
5 9
M er
斯德 哥
qual if
adminis tered</w>
19 2</w>
本 条</w>
I D</w>
promp tly</w>
其 次</w>
clari fication</w>
MA N</w>
de ple
bu s</w>
多 项</w>
mer its</w>
com man
行动 者</w>
塞 族</w>
. .</w>
sub region</w>
tra in
顾 及</w>
w ind</w>
Oc ean</w>
claim ant</w>
针 对性</w>
LA C</w>
I .
tri bunal</w>
bu t
accoun ted</w>
验 证</w>
开 采</w>
斯德哥 尔
总 体
exc eed</w>
半 年</w>
人 均</w>
absolu te</w>
manag er</w>
模 拟</w>
mal aria</w>
um n</w>
中 等</w>
reiter ate</w>
n one</w>
main stream</w>
Stock holm</w>
calcul ated</w>
人 事</w>
poli tics</w>
minis ters</w>
comple mentary</w>
P V.
fe ature</w>
B A</w>
author ization</w>
enabl ed</w>
阶 层</w>
consolid ate</w>
俱 乐
regul ated</w>
ph one</w>
核 能</w>
in ser
送 交</w>
欺 诈</w>
presid ency</w>
depriv ation</w>
se ats</w>
progres sive</w>
艺 术
w ron
on ,</w>
Rel ief</w>
lan tic</w>
全 民
ap point</w>
解 释
为 何</w>
riv er</w>
Ara bic</w>
analy se</w>
op en
g en</w>
必不可 少</w>
照 片</w>
一 段</w>
cat aly
截 止</w>
4 .2</w>
委 托</w>
pre am
il es</w>
recru ited</w>
案 情</w>
各个 方面</w>
ag ent</w>
Expres ses</w>
Cap e</w>
h at
v el
ce re
cont am
D E</w>
15 9</w>
此 后</w>
Maurit ania</w>
Bh ut
疫 苗</w>
R en
With out</w>
F ree</w>
对 抗</w>
2. 4</w>
突 然</w>
dis closure</w>
compar ative</w>
欧 安
电子 邮件</w>
起 到</w>
os en</w>
D avi
撤 回</w>
T est</w>
SO M</w>
ca using</w>
P ubl
C ru
ri d
大 力</w>
双 边
Cap ital</w>
会议 议程</w>
不 受</w>
第五 条</w>
conc erted</w>
2 26</w>
at ories</w>
大西 洋</w>
sur ances</w>
进 口
B e</w>
看 看</w>
197 6</w>
imper ative</w>
s .
f r
pu tting</w>
斯德哥尔 摩</w>
prosper ity</w>
R ES</w>
勘 探</w>
N i
MINU R
给 出</w>
经济 危机</w>
threat ened</w>
custom ers</w>
H ere</w>
系统 地</w>
ren der</w>
poli tici
s a</w>
Turk men
， 中国
工业 化</w>
v it
m m</w>
E d
经 共体</w>
Vic ti
撤 出</w>
excep tional</w>
力 度</w>
s or</w>
om a</w>
Comp any</w>
st en
mo de</w>
2 13</w>
第四 届</w>
senten ces</w>
国际 原子能
奥 运
分 割</w>
主 持
gran ting</w>
in et</w>
波 动</w>
erad icate</w>
谋 求</w>
surro un
和 谐</w>
ren dered</w>
ph il
ic h
团 队</w>
I R</w>
16 5</w>
del ayed</w>
w ages</w>
不 想</w>
J i
UNMI K</w>
ear ing</w>
两 级</w>
dev ice</w>
征 求</w>
credi ble</w>
如 果
Equ al</w>
s car
justi fied</w>
方 面
questionn aire</w>
fea sible</w>
juris dic
cl ients</w>
2 48</w>
所 说</w>
弃 权</w>
林 匹
L .1</w>
E T
此 事</w>
多 巴
约 翰</w>
sum mer</w>
做 好</w>
商 品
十 四届</w>
是 从</w>
看 见</w>
地 中
15 .
契 约</w>
队 伍</w>
prosecu te</w>
Rw and
po ol</w>
Mon etary</w>
妇 发</w>
shel ter</w>
rap porte
complex ity</w>
g ment</w>
养 恤</w>
res istance</w>
的 。</w>
qu ick</w>
v essels</w>
冲 击</w>
体 面</w>
上 面</w>
with standing</w>
m assive</w>
AS EAN</w>
man ual</w>
诉讼 法</w>
原 籍</w>
e v</w>
reg ret
形 象</w>
某 一</w>
f alls</w>
天 然
in security</w>
延 迟</w>
y e</w>
奠 定</w>
dec lined</w>
197 2</w>
Tw enty</w>
Contrac ting</w>
o sis</w>
ga ther
f it</w>
抗 议</w>
quanti ty</w>
on ds</w>
li m</w>
Fin al</w>
村 庄</w>
人 物</w>
ecosy stems</w>
阿 曼</w>
in tim
充 满</w>
军 火</w>
Counc il
ic ates</w>
哈 马</w>
这 些
rest ore</w>
reaffir m</w>
追 究</w>
3 .</w>
lo se</w>
路线 图</w>
Ex peri
contem porary</w>
Re form</w>
consisten cy</w>
en orm
ic op
MI NUS
gre enhouse</w>
会 期</w>
d ite</w>
指 令</w>
ac o</w>
获 得
in habit
为 重要</w>
徒 刑</w>
subm its</w>
moment um</w>
l on
Lib rary</w>
acqu ire</w>
St re
rec all</w>
accid ent</w>
wel f
EC A</w>
不 丹</w>
rest oration</w>
eng aging</w>
Turkmen istan</w>
e ase</w>
Suppl ement</w>
histor ic</w>
俱乐 部</w>
增 至</w>
中 所载</w>
利 用
形 态</w>
deleg ates</w>
身 上</w>
lim itation</w>
Conflic t</w>
wat er
Particip ants</w>
学 术
无论 是</w>
在 此
v acc
ex clu
lo an</w>
Rel ated</w>
18 9</w>
A mend
申请 人</w>
dis tric
Trin idad</w>
big gest</w>
2 27</w>
东 盟</w>
n avi
monit ored</w>
du m
查 询</w>
国际原子能 机构</w>
结 余</w>
Respon sible</w>
4 .</w>
既 定</w>
requis ite</w>
美 洲
设 有</w>
corpor ations</w>
颁 发</w>
wat ers</w>
simul tan
本 地</w>
fin ed</w>
边 缘
stat ute</w>
苏丹 政府</w>
inf r
iz ations</w>
Mat ters</w>
em ission</w>
领土 完整</w>
小 额</w>
大 幅度</w>
inqu iry</w>
Effec tive</w>
温 度</w>
ear th</w>
particip atory</w>
准 备金</w>
罚 款</w>
Austr alian</w>
th at
di um</w>
多巴 哥</w>
订 约</w>
不 仅仅</w>
survi val</w>
repe at
团 伙</w>
发 行</w>
18 3</w>
办 理</w>
discrimin ate</w>
成 长</w>
t s.</w>
六 个</w>
app rais
CO P.
法 外</w>
RIGH TS</w>
preven ted</w>
miti gate</w>
英 国
play ers</w>
le ts</w>
ecosy stem</w>
找 出</w>
含 量</w>
on .</w>
2 11</w>
establish es</w>
docu mented</w>
债 务
该 司</w>
repe ated</w>
appoin tments</w>
happen ed</w>
R A</w>
Ex c
where by</w>
incid ence</w>
M oun
3 7
adju sted</w>
第二 章</w>
reti rement</w>
Sahar an</w>
gener ations</w>
dupl ication</w>
d au
L and
留 下</w>
姓 名</w>
else where</w>
R T</w>
批 准
initi ate</w>
深 信</w>
组 建</w>
经济 社会</w>
年 间</w>
B ase</w>
尝 试</w>
k ill
并 于</w>
以 为</w>
as surances</w>
fir mly</w>
organ ic</w>
14 .
tr uly</w>
Stand ard</w>
Pro duction</w>
gener ating</w>
d i</w>
普遍 性</w>
气 氛</w>
pay ing</w>
f illed</w>
营养 不良</w>
cons isting</w>
cir cl
16 7</w>
赢 得</w>
摩 纳
coordin ator</w>
t s,</w>
Cu ban</w>
por no
substan tially</w>
连 续
Institu tions</w>
aran ces</w>
H U
十 分
In dependence</w>
尊重 人权</w>
特 立
fam ili
disappe arance</w>
老 师</w>
character ized</w>
检查 组</w>
con tents</w>
索 托</w>
L o
coun ty</w>
Promo ting</w>
跨国 公司</w>
I v
ad ed</w>
cl ient</w>
pl ed</w>
更 改</w>
or row</w>
resi li
architec ture</w>
采 矿</w>
中 小企业</w>
reimbur sement</w>
CC W</w>
伊拉 克
惩 治</w>
pass eng
poten tially</w>
I P</w>
5 .</w>
dis tur
华盛 顿</w>
EC E</w>
石 油
G M</w>
vi able</w>
tw ice</w>
ta il
重 组</w>
意 外</w>
Sur vey</w>
sign s</w>
ke wise</w>
ar a</w>
occa sions</w>
budge ted</w>
16 4</w>
main tains</w>
基本 建设</w>
measu red</w>
结果 表明</w>
否 认</w>
col le
网 址</w>
战斗 人员</w>
建筑 物</w>
实 施
特立 尼
浓 度</w>
radi ation</w>
犯 有</w>
一 架</w>
Mo ham
welf th</w>
Can adian</w>
本 来</w>
dre ds</w>
正 当</w>
引 入</w>
Tob ago</w>
sha pe</w>
ev e</w>
under sco
3 6
Som ali</w>
自 动
enti rely</w>
Volun teers</w>
qu iry</w>
li ved</w>
据 说</w>
consum ers</w>
教 学
多 名</w>
准 许</w>
Com pl
口 译</w>
D a
am b
tax es</w>
observ ance</w>
C ab
19 9</w>
immun ity</w>
s inc
col or</w>
质 量
un anim
advis ers</w>
inten ds</w>
ur gently</w>
out line</w>
seas on</w>
it y,</w>
sev erely</w>
cer tification</w>
prof ile</w>
记 得</w>
机 关
鱼 类</w>
ca su
反 馈</w>
your self</w>
Contribu tions</w>
it y.</w>
high light</w>
expl icitly</w>
别 的</w>
分 开</w>
臭 氧</w>
tack le</w>
refra in</w>
enti tle
dis h</w>
第五十 九</w>
的 人
代 理
16 3</w>
E M
ex posed</w>
传 真</w>
UNMI L</w>
A C</w>
real istic</w>
dead line</w>
2 14</w>
wind ow</w>
subm itting</w>
imparti al</w>
广 播
preval ence</w>
S ource</w>
制 定
办 公</w>
ill a</w>
over seas</w>
off en
惩 处</w>
19 0</w>
f ounded</w>
长 时间</w>
pre paredness</w>
罗姆 人</w>
基 因</w>
perspec tives</w>
3 9
文 职</w>
peo ple's</w>
承包 商</w>
gh ly</w>
is ations</w>
承 担
vol ati
riv al</w>
en force</w>
c us
更 多地</w>
avi ation</w>
O M</w>
影响 力</w>
in ated</w>
老 龄</w>
appe arance</w>
合作 社</w>
oc ean</w>
it t
cas ting</w>
UNO CI</w>
主 导</w>
所 指</w>
re member</w>
第一 章</w>
边缘 化</w>
chec k
17 3</w>
a ks</w>
Or der</w>
维护 者</w>
I A</w>
有所 增加</w>
doc tor</w>
承 受</w>
prevail ing</w>
occup ational</w>
capit a</w>
加 蓬</w>
sub sistence</w>
ch osen</w>
Cul ture</w>
种族 灭绝</w>
exclud ed</w>
com for
G E</w>
p p
其 实</w>
极 端
屠 杀</w>
present ations</w>
sugg estion</w>
输 入</w>
B on
达 和
u l</w>
b id
wron g
社会 主义</w>
re tained</w>
追 踪</w>
work load</w>
ad ult</w>
此 次</w>
show ing</w>
ten sions</w>
自 主</w>
thor ough</w>
那 种</w>
dem ar
perform ing</w>
n a</w>
负 面
reg rets</w>
prohi bi
修 复</w>
Vi e
re tain</w>
suppl iers</w>
read iness</w>
O ff
f ail</w>
特立尼 达和
性 别
cal endar</w>
ma y
synerg ies</w>
17 5</w>
特立尼达和 多巴哥</w>
外 债</w>
margin alized</w>
未 决</w>
benef ited</w>
C ase</w>
gra v
2 30</w>
接 受
ra il
negoti ated</w>
操 守</w>
委员 会
该 条</w>
applic ant</w>
看 起来</w>
奥 巴
统 筹</w>
地中 海</w>
13 25</w>
2 40</w>
年 前</w>
Col lege</w>
und red</w>
suspen ded</w>
招 聘</w>
事 宜</w>
Iran ian</w>
T em
鈥 檚</w>
K e
部 落</w>
司法 制度</w>
inhabit ants</w>
W AS</w>
取得 成功</w>
致 使</w>
物 种</w>
mater i
席 会议</w>
ous ness</w>
p up
南 部
较 为</w>
the red</w>
范 畴</w>
ch lor
mar k
indirec t</w>
证 券
20 3</w>
术 语</w>
莱 索托</w>
En voy</w>
Pers on
on ing</w>
ai res</w>
’ s</w>
ul timately</w>
techn ique</w>
提 倡</w>
l ut
自 决权</w>
和平 解决</w>
供 水</w>
不 足以</w>
L ife</w>
第五十 八</w>
塞 人</w>
differen ti
次 序</w>
Sit uation</w>
ric e</w>
p ages</w>
ell s</w>
A MI
B run
, "</w>
il and</w>
f is
in equ
emer ged</w>
where as</w>
F A</w>
D ate</w>
非 索</w>
remun eration</w>
gu e</w>
e at</w>
red ress</w>
18 5</w>
伯 利
a .
S ome
hel icop
权 力
formul ating</w>
Parlia mentary</w>
关键 作用</w>
ven d
suspen sion</w>
serv es</w>
th ro
co er
sub stitu
Con clusions</w>
同 事</w>
reve aled</w>
版 本</w>
一 支</w>
up dating</w>
row ing</w>
追 加</w>
一 事</w>
eth ics</w>
matern ity</w>
运 营</w>
项 下</w>
堕 胎</w>
desi rable</w>
仔 细</w>
attit ude</w>
sp ac
fin alized</w>
l y
res c
Nar cotic</w>
Mo ha
encoun tered</w>
pl ate</w>
高 度
pos sibilities</w>
比 亚
ev olution</w>
配 备</w>
署 长</w>
us al</w>
减 缓</w>
3 50</w>
注 意
com prises</w>
之 际</w>
W al
ey e</w>
斯 堡</w>
添 加</w>
Tri al</w>
19 51</w>
C P</w>
情 报
Viol ations</w>
employe e</w>
Administr ator</w>
G ul
E ver
pursu ing</w>
D A</w>
网 页</w>
form ally</w>
draf ted</w>
curricul um</w>
羁 押</w>
刑 法典</w>
流 动
公 务</w>
in ations</w>
Out come</w>
scienti sts</w>
Mean while</w>
ur gency</w>
叙 述</w>
警 官</w>
em o
妈 妈</w>
affor dable</w>
加 强
划 分</w>
Mus lim</w>
力 支持</w>
公共 行政</w>
S un
摩纳 哥</w>
化 合物</w>
难 以
回 来</w>
Jour nal</w>
牵 头</w>
re pair</w>
文 字</w>
电 力</w>
利 益
neg lec
contra st</w>
段 时间</w>
heav ily</w>
通 用</w>
argu ment</w>
res ting</w>
dri ving</w>
第九 条</w>
巴 哈马</w>
expres sing</w>
D F</w>
peti tion</w>
w ants</w>
ar i</w>
anim al</w>
fea sibility</w>
Fig ure</w>
fo stering</w>
bor ne</w>
zer o</w>
mun itions</w>
弥 补</w>
X I</w>
obvi ous</w>
ECO WAS</w>
17 2</w>
en acted</w>
适 足</w>
H ague</w>
h undred</w>
运 动
人 身
Elec tr
协调 会</w>
er b
普通 照会</w>
R ound</w>
Concern ing</w>
预 警</w>
y uan</w>
2 18</w>
R ef
smu ggling</w>
compil ation</w>
it .</w>
distric ts</w>
闭 门</w>
part ly</w>
远 远</w>
贩 卖
阅 读</w>
科学 技术</w>
depen ding</w>
or ate</w>
fas hi
B ack
sh ot</w>
feed back</w>
conver sion</w>
assign ment</w>
外 空</w>
印 刷</w>
s aving</w>
六 个月</w>
老 挝
演 变</w>
16 8</w>
必 须
5 7
S il
hos tilities</w>
de als</w>
acces sibility</w>
Oper ational</w>
详 情</w>
prece ding</w>
preserv ation</w>
guid ing</w>
Tim e</w>
达成 协议</w>
ow ed</w>
concentr ation</w>
不 能
oth o</w>
住 所</w>
hel ps</w>
han dle</w>
defin ing</w>
Ch r
continu ity</w>
纪 念
sp ic
prom otes</w>
教育 部</w>
驱 动</w>
发 电
减 免</w>
iter ran
ab an
modi fied</w>
无 疑</w>
pr ic
ph ra
U K</w>
C lu
成 熟</w>
晚 上</w>
classi fied</w>
R ural</w>
um bered</w>
ra h</w>
inv al
summar ized</w>
sum mits</w>
min ors</w>
Freed om</w>
tra ffic
Ba ham
2 60</w>
发 送</w>
构 想</w>
遏 制</w>
pursu it</w>
ari ous</w>
Pro ce
ceas efire</w>
铁 路</w>
架 构</w>
议 定</w>
sol d</w>
loc k</w>
enti ally</w>
Open ing</w>
what ever</w>
produc ers</w>
minim ize</w>
18 .
统 治</w>
部 件</w>
奖 励</w>
exis ted</w>
隔 离
Davi d</w>
sol e</w>
satis fied</w>
z en</w>
转 向</w>
全面 禁止</w>
人 才</w>
老挝 人民
ad o</w>
R ot
东 欧</w>
referen dum</w>
er to</w>
em atic</w>
Stres ses</w>
规 划
军事 行动</w>
lat er
enrol ment</w>
Med iterran
fi red</w>
appreci ate</w>
负面 影响</w>
临 时
权 威</w>
f ies</w>
lead s</w>
S TA
Les otho</w>
平 方
Bhut an</w>
d ad</w>
C le
老挝人民 民主共和国</w>
富 有</w>
包 括
续 会</w>
sign al</w>
考 察</w>
退 出</w>
敌 对
div or
prohib it</w>
补 助</w>
our se</w>
恢 复
e uro
19 69</w>
4. 3</w>
Mon aco</w>
I ES</w>
ligh tly</w>
偏 见</w>
一 只</w>
fl ag
ec ological</w>
重 叠</w>
ut ory</w>
这 笔</w>
A B
Dr .</w>
fres h</w>
不 必</w>
transl ated</w>
Maj or</w>
custom er</w>
contribu tes</w>
于 是</w>
or ge</w>
名 册</w>
迁 移</w>
手 续</w>
南部 非洲</w>
家 长</w>
constitu tion</w>
direc tor</w>
法律 事务</w>
k id
fire arms</w>
先 决
en sured</w>
17 1</w>
1. 4</w>
public ly</w>
execu tions</w>
Gab on</w>
情 绪</w>
su d
提 前</w>
义 务
separ ately</w>
clin ical</w>
认 为
even tually</w>
职业 培训</w>
G N
re action</w>
O man</w>
employ er</w>
5 .2</w>
S he
事务 处</w>
bro ther</w>
值 得
al ties</w>
ex clusive</w>
更 正</w>
spr ing</w>
pati ent</w>
积 累</w>
trac king</w>
spar e</w>
Mediterran ean</w>
第五十 七届</w>
广 泛
autonom y</w>
T our
w in
Wh o</w>
fis sile</w>
最 多</w>
开 展
刑事 诉讼</w>
enorm ous</w>
per mits</w>
grati tude</w>
it y
the ore
t ree</w>
laun ching</w>
国民 议会</w>
G .</w>
l y,</w>
太 阳
earthqu ake</w>
赞 助</w>
转 型
常 见</w>
成 年</w>
原 来</w>
儿 基会</w>
中 止</w>
5 .1</w>
care ful</w>
OS CE</w>
塔 利
A vi
air port</w>
年 期</w>
构 成
B ag
destin ation</w>
re au
op posed</w>
过 于</w>
ran ging</w>
审 讯</w>
Appl ication</w>
th ol
困 境</w>
O P</w>
成 人</w>
visi ble</w>
C. 12</w>
rup t</w>
Mon ter
ce ase</w>
直升 机</w>
substan ti
来 到</w>
telecommun ications</w>
干 扰</w>
副 本</w>
o active</w>
先决 条件</w>
ul timate</w>
stake holder</w>
G i
wel coming</w>
Bang k
无 国籍</w>
Presid ents</w>
出 去</w>
目的 地</w>
可行 性</w>
oun ding</w>
蒙特 雷</w>
ri f
pun ished</w>
fulf illing</w>
穷 国</w>
amen d</w>
有限 公司</w>
at tract</w>
work place</w>
sur plus</w>
Il licit</w>
repeat edly</w>
ul l</w>
p ra
Des ertification</w>
签 发</w>
exerc ises</w>
决 定
porno graphy</w>
八 条</w>
接 纳</w>
P ress</w>
明 天</w>
新 几内亚</w>
w as
救 助</w>
c ited</w>
实 务</w>
ali enable</w>
vi c</w>
found ations</w>
捍 卫</w>
gather ing</w>
反对 派</w>
exclu sively</w>
ir o</w>
al .</w>
benef icial</w>
Per i
转 化</w>
adap t</w>
采取 有效</w>
日内 瓦
t ac
o es</w>
Pap ua</w>
s pl
as surance</w>
analy zed</w>
affec ts</w>
C en
policy makers</w>
Civ ilian</w>
ling u
16 .
幸 福</w>
UNC CD</w>
2 33</w>
失 望</w>
大 小</w>
Victi ms</w>
Recogn izes</w>
谨 慎</w>
3 4
spen d</w>
e able</w>
ro ots</w>
第九 届</w>
reven ues</w>
眼 睛</w>
留 在</w>
pres sing</w>
sk in</w>
饮 用水</w>
检察 长</w>
de pu
secret ari
k es
过渡 时期</w>
核 算</w>
serv ants</w>
限 制
执法 人员</w>
13 .
fe wer</w>
塔利 班</w>
wat ch</w>
prud ence</w>
特别 是</w>
confir m</w>
b ar</w>
巴布 亚
经 常
stri ke</w>
es cal
Ser ious</w>
Work shop</w>
posi t</w>
Fore sts</w>
s port</w>
已 经
sh if
apprais al</w>
转型 期</w>
res our
本 法</w>
po o
大 众</w>
wh enever</w>
措 辞</w>
ag eing</w>
信 用
Ex am
签 字</w>
class es</w>
原 理</w>
N eg
stan tly</w>
合 同
18 1</w>
海 盗</w>
巴布亚 新几内亚</w>
d u</w>
aw arded</w>
in k</w>
inju ries</w>
adv ancing</w>
逻 辑</w>
一 再</w>
initi ally</w>
Monter rey</w>
4. 5</w>
bot tom</w>
six tieth</w>
appreci ated</w>
bir ths</w>
ow ners</w>
双 重</w>
18 6</w>
P L
norm ative</w>
贝 尔
特 殊
一 人</w>
Bangk ok</w>
优 先
等 教育</w>
斯 科</w>
2 43</w>
城 镇</w>
具体 措施</w>
ib an</w>
17 7</w>
Sec t</w>
on e
便 于</w>
E r
3. 5</w>
tre at</w>
st y</w>
Jud icial</w>
algorith m</w>
使 命</w>
威 士
Eng ine
遗 留</w>
捕 捞</w>
sur g
re ferences</w>
天 气</w>
li b
e ously</w>
雇 佣
certif icates</w>
discipl ine</w>
促 进
wit n
依 存</w>
pa th
碎 片</w>
countr y
Sub stan
tom orrow</w>
工 商
危 及</w>
联 海</w>
H os
曼 谷</w>
adhe rence</w>
alloc ate</w>
Ever y
w aiting</w>
报 纸</w>
ha el</w>
M .</w>
UN ITA
rul ing</w>
X i
tor ney</w>
ic ide</w>
er ror</w>
NA L</w>
mur der</w>
hun dreds</w>
路 线</w>
表示 感谢</w>
刚 刚</w>
re stra
Tal iban</w>
17 4</w>
poo rest</w>
2 69</w>
ag en</w>
sp ite</w>
pens able</w>
libr ary</w>
cer ti
志 愿</w>
公共 卫生</w>
忆 及</w>
up grading</w>
解 放</w>
me tal</w>
inst ability</w>
公共 政策</w>
distinc t</w>
st ore</w>
摧 毁</w>
依 法
v eg
At lantic</w>
consider ably</w>
30 %</w>
伤 亡</w>
aban don
UN DCP</w>
木 材</w>
Q a
内政 部</w>
等 级</w>
o dic
fore ig
三 次</w>
ograph y</w>
dec olonization</w>
租 赁</w>
打 开</w>
Con ferences</w>
acc o</w>
2 ,000</w>
已 于</w>
curricul a</w>
M aritime</w>
据 此</w>
动 议</w>
resol ving</w>
使用 者</w>
m ass
un preced
Baham as</w>
完 整
til ation</w>
dec l
国防 军</w>
C B
port fol
su it</w>
不 予</w>
au l</w>
G rou
bl ing</w>
mat ch</w>
m ir
灭 绝
ph arm
econom ically</w>
ro oms</w>
Prosecu tion</w>
贩卖 人口</w>
ivers ity</w>
Con sensus</w>
划 界</w>
M ine</w>
P rac
信 函</w>
18 7</w>
fil es</w>
中华 人民共和国</w>
uni form</w>
dem ographic</w>
with draw</w>
法 文</w>
D iversity</w>
mis sile</w>
身 份
赤 字</w>
必 然</w>
enjoy ed</w>
可 否</w>
20 6</w>
P .1</w>
知 道
susta in</w>
grou p
Appe al</w>
tu s</w>
流 入</w>
M I</w>
日 益
ff s</w>
comm em
exac erb
f all
这 件</w>
之 以
国际 货币
专题 讨论</w>
精 简</w>
wa it</w>
v a</w>
pr o</w>
e h</w>
Fi ve</w>
ti ll</w>
g un
my self</w>
epidem ic</w>
mea suring</w>
机 械</w>
Kuwa iti</w>
indis pensable</w>
b o</w>
19 1</w>
en g</w>
S exual</w>
载 列</w>
三 名</w>
tr a</w>
集 会</w>
th res
ind ication</w>
活 跃</w>
Indu stry</w>
Op portun
生 境</w>
defin itions</w>
commun icate</w>
exten ding</w>
vi gor
Wel fare</w>
不 起</w>
parti al</w>
enc umbered</w>
ac ute</w>
充分 利用</w>
spec ially</w>
根 除</w>
pill ars</w>
Dom estic</w>
三分 之一</w>
改 革
sol ely</w>
endeav our</w>
本 案</w>
inter medi
2 37</w>
20 2</w>
消 耗
abor tion</w>
高级 官员</w>
ti s
含 义</w>
离 婚</w>
et res</w>
mer cen
happ en</w>
pi ece</w>
an da</w>
Lev el</w>
descri be</w>
ass er
thou sand</w>
W ar
超 越</w>
感到 遗憾</w>
id ated</w>
刑事 诉讼法</w>
人民 代表
unpreced ented</w>
peo ple
regis try</w>
liveli hoods</w>
com promise</w>
Re sul
相 似</w>
inv est</w>
t ob
估 算</w>
19 8</w>
命 运</w>
infec tion</w>
fore stry</w>
Over all</w>
cha ir</w>
销 售
w ishing</w>
孕 妇</w>
Accoun ting</w>
pled ges</w>
R ic
佛 得
消 极</w>
就 要</w>
势 头</w>
灭绝 种族</w>
non governmental</w>
学 金</w>
Parag raphs</w>
学 者</w>
Ti bet</w>
Incre ase</w>
anim als</w>
老 年</w>
的 一
co des</w>
chall eng
Gol an</w>
wal k</w>
col lege</w>
20 5</w>
18 4</w>
台 湾</w>
Jud ge</w>
熟 悉</w>
oblig ed</w>
des cent</w>
as sumption</w>
直 接
电子 商务</w>
报 复</w>
see ing</w>
legiti macy</w>
Ca thol
斯 特
a )</w>
相关 性</w>
off enders</w>
exc ess</w>
机 器</w>
MI T
Back ground</w>
Pro m
Multi lateral</w>
IC C</w>
警 务</w>
见 下文</w>
两 者</w>
概 况</w>
尽管 如此</w>
ESC WA</w>
B earing</w>
ten ed</w>
establish ments</w>
税 务</w>
前 进</w>
contrac tor</w>
奥巴 马</w>
接 着</w>
surroun ding</w>
M S</w>
2 25</w>
天然 气</w>
tal king</w>
撤 离</w>
纽 约
cro ps</w>
fulf illed</w>
m ates</w>
elabor ate</w>
pr int</w>
y cl
vir tu
第三 个</w>
extra ordinary</w>
院 长</w>
Academ y</w>
val idity</w>
A id</w>
行 径</w>
单 位
以 南</w>
Nat ural</w>
概 览</w>
女 儿</w>
s tic
datab ases</w>
Priv ate</w>
物 理</w>
国 防</w>
er ,</w>
Provi de</w>
克 里
feel ing</w>
Moha med</w>
gene tic</w>
extr a</w>
成 分</w>
所 提</w>
对 应</w>
frequ ent</w>
lo g</w>
f ro
ev ident</w>
综合 性</w>
债 券</w>
克 劳</w>
confidenti al</w>
re deployment</w>
设 计
抵 达</w>
Agricul tural</w>
prof its</w>
民 事
D .
文 件
mi xed</w>
Contin ue</w>
un ified</w>
sk illed</w>
retur ns</w>
elec t</w>
reinforc ing</w>
绝 大多数</w>
边 缘</w>
calcul ation</w>
Recor ds</w>
17 8</w>
海 底</w>
recip ient</w>
hol id
l isting</w>
In dic
深 刻</w>
互 相</w>
法 人</w>
o zone</w>
a b</w>
Con struction</w>
U s
Bo dy</w>
日内瓦 办事处</w>
dam ages</w>
流行 病</w>
atten dance</w>
geograph ic</w>
at al</w>
苏 里
聘 用</w>
B ou
cont ex
def end
宪 法
B T</w>
媒 介</w>
E D
得 出
iter acy</w>
d uly</w>
当 事</w>
lo s</w>
re sume</w>
延 误</w>
之 日起</w>
tem por
grow n</w>
bul ar</w>
异 议</w>
十 六届</w>
源 于</w>
使 馆</w>
市场 准入</w>
se iz
50 ,000</w>
确 切</w>
二十 一</w>
ev ac
17 6</w>
无 需</w>
20 7</w>
2 22</w>
利 息</w>
Ob ama</w>
G lob
G A</w>
禁 令</w>
放射 性</w>
Person nel</w>
sec uring</w>
exam ining</w>
Joh ann
100 ,000</w>
不 少</w>
propos es</w>
西班牙 语</w>
smo oth</w>
法 院
一 类</w>
suppor tive</w>
4 6
Trans f
更 换</w>
具体 情况</w>
F our</w>
Ab u</w>
一 步
Con gol
ak a</w>
消 失</w>
prec ise</w>
compe ten
Organiz ational</w>
execu ted</w>
ment ari
re pu
19 4</w>
argu ed</w>
联合国 日内瓦办事处</w>
en rich
收 费</w>
解释 性</w>
伯利 兹</w>
用 尽</w>
pos sibly</w>
大 大
fal se</w>
s al</w>
after noon</w>
se at</w>
T el
rob ust</w>
hel p
： “
Su per
verb ale</w>
D am
acti v
生 成</w>
ap parent</w>
dro pped</w>
20 9</w>
施 工</w>
cl am
V in
design ing</w>
快 乐</w>
bro ken</w>
财务 报告</w>
Sh ould</w>
指 明</w>
organ isations</w>
dev ast
inhe rent</w>
系 数</w>
or ph
见 解</w>
ha m</w>
早 日</w>
bran ches</w>
分 至</w>
圣 马
全 力</w>
sha re
kil om
走 向</w>
习 惯
govern ed</w>
tra r</w>
resear chers</w>
collabor ative</w>
chan nel</w>
海洋 环境</w>
概 要</w>
col lap
第七 届</w>
pro te
ph ases</w>
警察 局</w>
企业 家</w>
regul ate</w>
in ev
Pow ers</w>
Cur rently</w>
明确 规定</w>
筹 集</w>
L ast</w>
证 词</w>
老 人</w>
佛得 角</w>
ne es</w>
大 赦</w>
han g</w>
冈 比亚</w>
is lat
Ta x
MEN T</w>
传染 病</w>
ang er</w>
sla very</w>
resor t</w>
带 有</w>
实 现
sel s</w>
G r
2 15</w>
杂 志</w>
s our
oper ated</w>
est ate</w>
bl ock</w>
三 项</w>
qualif ications</w>
救 灾</w>
rati fying</w>
l in</w>
aspir ations</w>
ri ght
18 8</w>
19 .
国务 院
def icit</w>
diversi fication</w>
conc ur
展 望</w>
之 上</w>
R IC
开 始
出 发</w>
br ings</w>
in struction</w>
Congol ese</w>
at orial</w>
A I</w>
Dec .
ettle ment</w>
米 尔</w>
arch ing</w>
确 定性</w>
文 献</w>
世 卫</w>
inter ven
div isions</w>
condem ned</w>
理 念</w>
moun tain</w>
社会 福利</w>
第十 一届</w>
会 员</w>
评 注</w>
毫 无</w>
Un ity</w>
ac id</w>
19 63</w>
2 41</w>
ref erring</w>
Ital ian</w>
Cypri ot</w>
这 个
ag ues</w>
伊斯兰 会议
pe tro
accor ded</w>
伊斯兰会议 组织</w>
decl are</w>
大会 决议</w>
un certainty</w>
实 效</w>
z ens</w>
火 箭</w>
sam ple</w>
in solvency</w>
con tain
peri odic
指 派</w>
m it
N ot
ap por
托 克劳</w>
Ver de</w>
R ES
k g</w>
as sure</w>
Sw iss</w>
参加 者</w>
卫生 保健</w>
comm ission
s phere</w>
kilom etres</w>
有 意</w>
内 阁</w>
compar able</w>
p h</w>
绳 之以
onom y</w>
heal th
航 天
司法 部门</w>
co w</w>
典 型</w>
有 点</w>
s ac
L t
严 峻</w>
Dis pu
easi er</w>
de posit</w>
Ma h
昨 天</w>
es sions</w>
ut most</w>
编 纂</w>
分 裂</w>
con ten
elabor ated</w>
cultiv ation</w>
之 处</w>
恐 惧</w>
几 次</w>
tre es</w>
列 举</w>
M s</w>
机 会
生 殖
假 定</w>
accid ents</w>
en sures</w>
卫生 设施</w>
gro und
cen ter</w>
绳之以 法</w>
s en</w>
欧洲 人</w>
欧安 组织</w>
pled ged</w>
U L
or ian</w>
deb ates</w>
ban k
Mic hael</w>
a po
美国 政府</w>
5 8
集 中
Ur ban</w>
东 南
应用 程序</w>
respon sive</w>
al li
气 象</w>
S af
te or
T O
紧 密</w>
esti ci
investig ating</w>
紧 张
两 份</w>
转 换</w>
中 断</w>
s lightly</w>
ber y</w>
L a</w>
continu ously</w>
anci ent</w>
抵 消</w>
施 政</w>
gen ital</w>
oper ation
han ded</w>
Ab dul
m ol
地 产</w>
Pro gram</w>
t ant</w>
性 恋</w>
Regul ar</w>
Ro ad</w>
manife stations</w>
sle ep</w>
阿拉伯 国家联盟</w>
西 亚
Sy stems</w>
助 长</w>
文 学</w>
ed y</w>
前 面</w>
equip ped</w>
如 同</w>
in admissible</w>
effici ently</w>
改 组</w>
Bel ize</w>
S ION</w>
犹 太
mess ages</w>
HU MAN</w>
os s</w>
ann ed</w>
K in
eful ly</w>
inequ alities</w>
附 录</w>
， 他
衰 退</w>
第六 届</w>
ear nings</w>
申 报</w>
Tok el
主 要
eth eless</w>
这 儿</w>
十 周年</w>
perfec t</w>
ag er</w>
2 66</w>
开 放
一 揽
environ ments</w>
H all</w>
perc eived</w>
volun te
Pers onal</w>
传 统
tri bunals</w>
养 老
— —
our selves</w>
k ill</w>
guil ty</w>
2. 6</w>
两 国</w>
stereotyp es</w>
accur acy</w>
ti s</w>
reg ret</w>
a sur
interpre ted</w>
ret ro
behavi or</w>
UNITA R</w>
一 张</w>
201 8</w>
car go</w>
we ar</w>
Vie ws</w>
stead y</w>
retur ning</w>
net working</w>
Accoun t</w>
不 愿</w>
G ames</w>
训 研</w>
优 质</w>
加 紧
收 取</w>
harmon ized</w>
advis e</w>
入 学率</w>
fif tieth</w>
威士 兰</w>
斯 威士兰</w>
visi ting</w>
顺 序</w>
得出 结论</w>
H en
第三 国</w>
ME s</w>
2 21</w>
inno cent</w>
vac ancies</w>
Ex plo
代 替</w>
ist en</w>
苏里 南</w>
第六 次</w>
刑事 责任</w>
the tic</w>
见 到</w>
承 付</w>
proce eding</w>
a sure</w>
H ist
一揽 子</w>
sit u
Pe ter</w>
os oph
恶 劣</w>
仪 式</w>
eng ine</w>
Sup pression</w>
提供 者</w>
少 女</w>
毕 业</w>
amoun ting</w>
C F
将 要</w>
Dis cus
赤 贫</w>
Hou sing</w>
1995 年</w>
separ ated</w>
S ir</w>
联合国 人口
remin ded</w>
摩 罗</w>
Sur in
约翰 内
s wit
流 量</w>
ex hi
W ill</w>
非 法
嫌 疑
Ta x</w>
联合国人口 基金</w>
P ost</w>
M en</w>
伟 大</w>
pro b
juris prudence</w>
install ation</w>
fe eding</w>
thir ds</w>
b is</w>
stipul ates</w>
si ves</w>
oc eans</w>
pir acy</w>
许 多
约翰内 斯堡</w>
审计 员</w>
Program mes</w>
租 金</w>
核 证</w>
海 岸</w>
Tra v
连续 性</w>
第五 届</w>
终 于</w>
宣 称</w>
cri tic
构 建</w>
创 业</w>
mar t</w>
dis bur
科 摩罗</w>
ad ding</w>
技 巧</w>
J an
ren tal</w>
19 3</w>
预算 编制</w>
si les</w>
prin ting</w>
Pr acti
归 还</w>
Col lec
un employed</w>
t .
dimen sional</w>
kill ings</w>
布 雷
clud ing</w>
su spic
律 师
diagno sis</w>
work er</w>
ba by</w>
Johann es
post pon
加紧 努力</w>
qu i
应 予</w>
con stantly</w>
资 料
训 练
high lights</w>
c ope</w>
卢 西亚</w>
obstac le</w>
更 具</w>
under took</w>
R T
及 农业
g am
Esti mate</w>
股 票</w>
安 道
即 便</w>
is lands</w>
ac knowledge</w>
大 陆
Un fortunately</w>
最 终
区域 性</w>
re tention</w>
恐 吓</w>
w ave</w>
公共 服务</w>
v ar
资 本
plan e</w>
Hai tian</w>
论 点</w>
R is
Br us
测 定</w>
on i
An dor
原则 上</w>
存 款</w>
negoti ate</w>
那 时</w>
联合国 粮食
sensi tiz
ber g</w>
违 法行为</w>
联合国粮食 及农业
A M
感 染
处 以</w>
联合国粮食及农业 组织</w>
西 欧</w>
mobil izing</w>
bas eline</w>
附 上</w>
b its</w>
w arran
19 6</w>
稳 定性</w>
示 威</w>
正 当
初 期</w>
Ro yal</w>
孕 产妇</w>
f ate</w>
as a</w>
Tru ste
tow ns</w>
ha ir</w>
Coordin ating</w>
I t
conf ident</w>
二 氧化
海 牙</w>
s ors</w>
Respon se</w>
experi ment</w>
dis tor
ans w
Prof essor</w>
谋 杀</w>
Johannes burg</w>
Dec olonization</w>
survi v
religi ons</w>
mag ne
Im proved</w>
2 28</w>
ge ts</w>
ell es</w>
autom atic</w>
真 是</w>
2 16</w>
上 学</w>
相互 依存</w>
fe e</w>
国际货币 基金组织</w>
ver ify</w>
exerc ising</w>
So vi
Gul f</w>
庭 长</w>
la yer</w>
bu yer</w>
IN TER
T ow
合 成</w>
def ense</w>
ad j
自 行</w>
Chr ist
2 53</w>
岗 位</w>
和 发展
it ement</w>
gu a</w>
布 罗
各 部</w>
不 变</w>
Regis trar</w>
Or din
17 9</w>
加勒 比
n evertheless</w>
affor d</w>
Arbit ration</w>
雇佣 军</w>
re ments</w>
ha ble</w>
欧洲 共同体</w>
rele ases</w>
In come</w>
从 中</w>
advis ed</w>
Sw az
延 期</w>
ga thered</w>
复 兴</w>
o res</w>
Lu cia</w>
哪 里</w>
武 器
核 不
evol ving</w>
施 行</w>
Ti bet
通货膨 胀</w>
def end</w>
书 记</w>
扫 盲</w>
圣 卢西亚</w>
付 出</w>
expen sive</w>
年 龄
ber cul
措 施
m l</w>
co tics</w>
Tri bunals</w>
ad i</w>
trans boundary</w>
b al</w>
In human</w>
敌对 行动</w>
th es</w>
dis proportion
破 坏
Vir g
IO NAL</w>
收 容</w>
Stre et</w>
2 36</w>
交 换
S at
De grading</w>
希 望
Substan tive</w>
Sovi et</w>
Olymp ics</w>
in duc
inspec tions</w>
说 话</w>
技术 支持</w>
代 码</w>
stat utory</w>
I MI
origin ally</w>
pay able</w>
an ian</w>
ou ldn</w>
街 头</w>
ab sten
ra w</w>
Mad rid</w>
aw ards</w>
n 't</w>
log ical</w>
Re porting</w>
17 .
Cathol ic</w>
CC PR</w>
天 主教</w>
监 控</w>
l ending</w>
生 长</w>
当 今</w>
set tings</w>
deliver ing</w>
毫 米</w>
元 素</w>
Pu erto</w>
M em
20 4</w>
NAT O</w>
config uration</w>
nit ure</w>
exerc ised</w>
bench marks</w>
cel lan
L. 2</w>
Cer tain</w>
depar ture</w>
ess entially</w>
惠 益</w>
山 区</w>
wor st</w>
fa x</w>
liter ature</w>
min ed</w>
经济 合作
en ta
direc tors</w>
ship ment</w>
war m</w>
parti ally</w>
司法 机关</w>
b ases</w>
E L
UN AIDS</w>
00 0
ven ue</w>
公 私</w>
深 切</w>
t ty</w>
collec ting</w>
ter y</w>
em an
ur ship</w>
遭 遇</w>
40 %</w>
i ance</w>
G ambia</w>
获 益</w>
gen ts</w>
fam ous</w>
Brus sels</w>
en a</w>
c tu
收 养</w>
p ping</w>
Mar ine</w>
deteri oration</w>
汇 款</w>
体 罚</w>
因 为
asur y</w>
P aul</w>
Mee tings</w>
C red
流 通</w>
kno ws</w>
布鲁 塞尔</w>
ag grav
ver if
rel atives</w>
Mic ro
补 救
evalu ating</w>
ter ly</w>
占领 国</w>
gain ing</w>
北 约</w>
业 已</w>
F a
收 款</w>
从 来</w>
开发 银行</w>
Surin ame</w>
su n</w>
ref usal</w>
枪 支</w>
sal am</w>
总 统
调 集</w>
b rain</w>
今 年
费 率</w>
attribu ted</w>
f ron
频 率</w>
作 战</w>
J ean</w>
2 58</w>
护 照</w>
亚 洲
des erv
c ot
acc eded</w>
无 条件</w>
P B
目 标
格 兰</w>
K hal
5. 3</w>
19 5</w>
财 产
器 官</w>
Meth ods</w>
B ret
一 部</w>
ori um</w>
a side</w>
St ation</w>
Ac knowled
特 区</w>
priv acy</w>
la u
om on</w>
allow ances</w>
Gen ocide</w>
w is
可 靠
control ling</w>
ace u
K o
co m</w>
N ation
务 人员</w>
Rac ism</w>
Sem in
中 将</w>
甄 选</w>
导 航</w>
sur pris
N et</w>
prof ound</w>
radi oactive</w>
l as</w>
IC CD</w>
新 生
out set</w>
inte resting</w>
想 象</w>
hat red</w>
ten ure</w>
家 具</w>
炸 弹</w>
fores een</w>
出 色</w>
一 百
cellan eous</w>
大 学
In stead</w>
formul a</w>
统计 数字</w>
后 面</w>
cou ple</w>
服务 中心</w>
人民 共和
o ti
min eral</w>
进 出口</w>
结构 性</w>
recur rent</w>
Sub sequently</w>
安 提
UNMI S</w>
核不 扩散</w>
stop ped</w>
Li a
遵 照</w>
w ay
specif y</w>
Li ke</w>
要 求
胜 利</w>
pres sed</w>
is m
挑 选</w>
入 学</w>
f loo
Man date</w>
re alities</w>
TA H</w>
medic ines</w>
appropri ately</w>
H or
EC LAC</w>
af ore
打 破</w>
军 人</w>
op tional</w>
eth ical</w>
analy sed</w>
R M
doc tr
hor iz
w omen
10 ,000</w>
in jec
医疗 保健</w>
t ling</w>
on a</w>
Sub programme</w>
著 名</w>
Organ isation</w>
均 等</w>
mar king</w>
花 费</w>
集 束</w>
alloc ations</w>
空 运</w>
D evelop</w>
福 利
储 蓄</w>
境 况</w>
前 任</w>
信 中</w>
prov en</w>
concentr ated</w>
安道 尔</w>
descri bes</w>
过 分</w>
r al
justi fy</w>
乡 村</w>
C S</w>
第 八届</w>
bercul osis</w>
Per centage</w>
E U
收 回</w>
challeng ing</w>
Comm itted</w>
Anti gua</w>
modern ization</w>
Brun ei</w>
MINUS TAH</w>
尽 力</w>
Lan gu
accum ul
无 法
损 坏</w>
家 里</w>
sh ore</w>
iss ance</w>
L or
不 了</w>
e e</w>
无线 电</w>
el ess
ar rival</w>
6 .</w>
亲 属</w>
ven ture</w>
借 鉴</w>
decentr alization</w>
practi tioners</w>
妥 善</w>
pun ish</w>
Avi ation</w>
spec tr
S G
80 %</w>
进 一步
secretari ats</w>
Reiter ates</w>
引 导</w>
12 67</w>
set tled</w>
主 体</w>
gra ss</w>
cred itors</w>
强 度</w>
ra id</w>
hot el</w>
Integr ation</w>
Pro jec
非 统
29 6</w>
tradi tions</w>
pen di
马 德里</w>
一 周</w>
Tokel au</w>
麻醉 品</w>
scen e</w>
B re
第十 二届</w>
电 话
向 前</w>
en ess</w>
Prom ote</w>
非统 组织</w>
三分 之二</w>
manag erial</w>
glob ally</w>
19 7</w>
loc ally</w>
ess ation</w>
elec tro
Swaz iland</w>
us salam</w>
ke t
6 7
CD M</w>
viol ate</w>
2 54</w>
甲 基</w>
afore mentioned</w>
Th om
北 京
完整 性</w>
包 装</w>
inf ant</w>
专 用</w>
一 些
Col onial</w>
it ate</w>
第十 九条</w>
maxim ize</w>
chron ic</w>
学 位</w>
捐 赠</w>
compu ters</w>
替代 品</w>
第五十 四届</w>
派 出</w>
y oun
imparti ality</w>
东 南亚</w>
i bid</w>
su peri
inter views</w>
ur ban
soci o
mee ts</w>
2 76</w>
波 多
resili ence</w>
tion ment</w>
justi fication</w>
权力 下放</w>
进行 谈判</w>
G C</w>
argu ments</w>
尔 德</w>
Govern ance</w>
F al
do g</w>
im position</w>
al co
缩 短</w>
W oods</w>
精 确</w>
bu l</w>
军 官</w>
frag ile</w>
R ole</w>
国 王</w>
nam ed</w>
O k
依 赖
un acceptable</w>
condi tional</w>
视 频</w>
M anu
L ong</w>
小组 讨论</w>
20 .
统计 局</w>
atten ding</w>
调 解
戈 兰</w>
is n</w>
is tr
sub scri
or os</w>
au g
复杂 性</w>
stud ying</w>
CM P</w>
所在 地</w>
s y</w>
现 实
den ial</w>
能 量</w>
哈 根</w>
lea ves</w>
Man ual</w>
卷 入</w>
L ine</w>
m el
contin gency</w>
动 荡</w>
help ful</w>
追 回</w>
yi eld</w>
Sol omon</w>
专 长</w>
dam aged</w>
PR ES
nomin ated</w>
cl ause</w>
Ch all
spons oring</w>
3 .4</w>
Gran ting</w>
phra se</w>
expl icit</w>
民 间
e de</w>
据 报</w>
cre ative</w>
aff ili
reli ance</w>
Le ad
trac ted</w>
character istic</w>
AC. 105</w>
China 's</w>
Cla im
EN T</w>
共 产
at or
rec alling</w>
im ages</w>
教 会</w>
公 园</w>
Y oung</w>
居 住
Chair s</w>
u red</w>
rever se</w>
迫 切</w>
rein forced</w>
c ards</w>
Spec ific</w>
奖 学金</w>
预 见</w>
吸 引
Corpor ation</w>
undersco red</w>
可 信</w>
学 习
a c</w>
增 设</w>
cat ch</w>
re r</w>
作 法</w>
mi x
arbitr al</w>
um in
low est</w>
evalu ated</w>
抵 抗</w>
bu reau
min ute</w>
看 出</w>
succ ee
stabil ization</w>
搜 索</w>
波多 黎
所 罗
rad ication</w>
cor respond
2 52</w>
此 前</w>
ment s,</w>
c oc
E radication</w>
看 作</w>
上 去</w>
M E</w>
Americ ans</w>
日 前</w>
2 65</w>
portfol io</w>
manufac ture
详 尽</w>
移 民
第二 阶段</w>
买 方</w>
promul gated</w>
f ab
2 38</w>
s c</w>
COM MIT
波多黎 各</w>
res ettlement</w>
Z one</w>
女 生</w>
款 额</w>
性 骚扰</w>
compl icated</w>
F il
inst al
dre am</w>
inc umb
tox ic</w>
child hood</w>
食 品
不 错</w>
号 法</w>
原 先</w>
UN DA
后 ，
2 55</w>
些 时候</w>
li able</w>
Z h
配 额</w>
故 意</w>
hol istic</w>
abol ition</w>
发 现
Second ly</w>
19 48</w>
隔离 墙</w>
纠 纷</w>
J S
G H
Tour ism</w>
Cru el</w>
A y
蔓 延</w>
第一 条</w>
K ab
hos ting</w>
Enh anced</w>
Andor ra</w>
g an</w>
struc tured</w>
预 先</w>
住 宅</w>
intim idation</w>
dispar ities</w>
章 节</w>
大 批</w>
便 利
职 工</w>
是 不是</w>
实 践
Rec ent</w>
内 外</w>
e k
depos its</w>
回 合</w>
2 17</w>
fla g</w>
Fe der
or i</w>
修 订
谢 谢</w>
一 次
mar ri
竞 选</w>
退 休
S .
al igned</w>
re mark
elev enth</w>
doc tors</w>
Cop enh
独立 宣言</w>
不 满</w>
Bar bud
遗 传</w>
补救 措施</w>
模 块</w>
J .</w>
the ast</w>
inter face</w>
O AU</w>
占 有</w>
H al
wor thy</w>
调 节</w>
pendi x</w>
attemp ted</w>
若 干
s ick</w>
lut ants</w>
4 50</w>
proc essed</w>
dar k</w>
Practi ce</w>
H owever,</w>
de gre
回 家</w>
Cur rent</w>
变 更</w>
D id</w>
encomp ass
ou ses</w>
D D</w>
an ds</w>
ad mission</w>
K ing</w>
carri er</w>
监 护
Par k</w>
AMI SOM</w>
日 历</w>
un known</w>
迫 害</w>
than ked</w>
Investig ation</w>
E .
succ ession</w>
g ot
裁 减</w>
si t</w>
ge red</w>
A k
reflec tion</w>
Rwand an</w>
兼 顾</w>
t onn
lev er
f our
UN U</w>
gu ardi
氯 化</w>
哥 本
大 多</w>
v es
guarante eing</w>
H on
protec tive</w>
harmon y</w>
H us
救 援</w>
偷 运</w>
扭 转</w>
prosecu ted</w>
Regis ter</w>
敌 人</w>
两 位</w>
com prise</w>
3 ,000</w>
bo at</w>
全民 投票</w>
S MEs</w>
称 赞</w>
R ati
L E</w>
Barbud a</w>
投 票
印 象</w>
X II</w>
颜 色</w>
2 64</w>
区 内</w>
fru it</w>
Pro duc
贩 毒</w>
demonstr ation</w>
Chris tian</w>
安提 瓜
2 32</w>
mo re
界 限</w>
sti g
incorpor ating</w>
bo ost</w>
安提瓜 和
安提瓜和 巴布
定 居</w>
je op
cred entials</w>
install ations</w>
Im p
speci alists</w>
dec ree</w>
Gre en</w>
北 方</w>
宣 传
cen sus</w>
圣马 力
pl ing</w>
Qa ida</w>
联 苏</w>
电 邮</w>
微 型</w>
处 在</w>
promis ing</w>
Vin cent</w>
Bret ton</w>
基督 教</w>
n ine
太 阳</w>
per tin
C air
L ear
淘 汰</w>
ac ter
v i</w>
Addi tionally</w>
房 舍</w>
offic ially</w>
Resul ts</w>
( b
gl ass</w>
dau ghter</w>
autom atically</w>
rapporte urs</w>
警 卫</w>
艰 难</w>
deb ris</w>
2 23</w>
ar ticul
ES A</w>
安提瓜和巴布 达</w>
wor ding</w>
low s</w>
ge o
Par ticul
后 代</w>
Wh ite</w>
fair ly</w>
form ance</w>
W C</w>
P P
事务 司</w>
gradu ate</w>
comm o
colle agues</w>
pi ec
communic ated</w>
亚 的
de ploy</w>
涉 嫌</w>
Add. 5</w>
associ ate</w>
现 任</w>
对 比</w>
pe er</w>
on gs</w>
斯坦 共和国</w>
坚 信</w>
坐 在</w>
recor ding</w>
Copenh agen</w>
rou te</w>
ph er
刑 罚</w>
di fication</w>
congratul ate</w>
Commer cial</w>
UNF CCC</w>
侧 重</w>
mic ro</w>
pen al</w>
la m</w>
持久 和平</w>
调查 团</w>
stri ve</w>
Democr acy</w>
aud its</w>
Mar ino</w>
6 8
Ordin ance</w>
6 .2</w>
lo ts</w>
ir a</w>
he res</w>
1996 年</w>
wh el
看 待</w>
with drawn</w>
Fu ture</w>
appe aled</w>
2 49</w>
多 种
Pe aceful</w>
SA R</w>
日 子</w>
对 方</w>
与 会</w>
promis ed</w>
Do es</w>
labor atory</w>
L ar
witn essed</w>
毕 业
之 所以</w>
Chem icals</w>
哥本 哈根</w>
foreig ners</w>
H .</w>
jurisdic tions</w>
dis play</w>
全 文</w>
Com ple
shar p</w>
extra judicial</w>
Add is</w>
v ary</w>
pup ils</w>
忘 记</w>
deteri or
res sing</w>
限 期</w>
def ec
ship ping</w>
s :</w>
ic ating</w>
拉 特</w>
地 下
奥 林匹
多 元
僵 局</w>
6 .1</w>
1, 0
ir respective</w>
week ly</w>
u k
phil osoph
无 视</w>
tri p</w>
妇女 组织</w>
遥 感</w>
财务 状况</w>
12 月</w>
R Y</w>
自动 化</w>
定 位</w>
fin ished</w>
mal nutrition</w>
无 人</w>
no tion</w>
liqu id</w>
ign ment</w>
演 讲</w>
se ments</w>
CE B</w>
navi gation</w>
法律 顾问</w>
中 小型</w>
coun tering</w>
work force</w>
f aster</w>
奴 役</w>
解 雇</w>
经 社</w>
es ;</w>
countri es,</w>
通 知
S har
一 组</w>
bl ue</w>
贝 巴</w>
无 障碍</w>
手 中</w>
令人 满意</w>
生命 权</w>
以 上
un paid</w>
bri d
1. 6</w>
C B</w>
Ste ering</w>
L akes</w>
cir cu
B O
cons ist</w>
R od
利 害
当 作</w>
伊斯兰 教</w>
2 44</w>
is hable</w>
震 惊</w>
诊 所</w>
出 境</w>
Com oros</w>
卡 尔</w>
G ib
a p</w>
里 面</w>
斯 亚
常 务
at tainment</w>
ad mitted</w>
ox ide</w>
time table</w>
ow ner</w>
分 配
真 诚</w>
生 育
森 特</w>
峰 会</w>
Wor ks</w>
jud gment</w>
以 供</w>
fur n
Me dia</w>
f arm</w>
产 假</w>
维 尔</w>
国际 贸易
institu tes</w>
utiliz e</w>
discus sing</w>
推 荐</w>
up per</w>
tob acco</w>
Dar ussalam</w>
斯亚 贝巴</w>
农 药</w>
刚 才</w>
avoid ing</w>
操 作
幼 儿</w>
学术 界</w>
cho ices</w>
Add endum</w>
multi later
境 外</w>
固 有</w>
n i</w>
段 落</w>
sh oo
Con serv
for war
advoc ate</w>
acc ru
研 制</w>
南斯拉 夫
生产 能力</w>
人 身</w>
提 取</w>
中 东
threat en</w>
将 近</w>
y st
Expres sing</w>
保 留
thres hold</w>
in compatible</w>
i res</w>
债务 人</w>
typ ically</w>
V is
LO S</w>
Ap poin
马 上</w>
disc overed</w>
确 信</w>
W ould</w>
pil ing</w>
所罗 门
生产 性</w>
各项 规定</w>
succ eed</w>
annex es</w>
民族 和解</w>
testi mony</w>
exac tly</w>
Hol y</w>
per mission</w>
dissemin ated</w>
re sumption</w>
trou ble</w>
motiv ated</w>
激 烈</w>
investig ative</w>
c in
个 体</w>
pream bular</w>
矿 物</w>
acceler ated</w>
ten d
m ere</w>
Ab aba</w>
28 9</w>
intensi fied</w>
F ran
等 于</w>
G al
til l
therap y</w>
A /
independ ently</w>
ell ation</w>
克 拉</w>
oper ators</w>
拘 押</w>
indirec tly</w>
cro p</w>
Comm itte
要 么</w>
C are</w>
教育 权</w>
clari fied</w>
A chi
2 61</w>
伊斯 坦
ali en</w>
极端 主义</w>
重大 进展</w>
国防 部</w>
缔 约</w>
clo thes</w>
ac commo
亚的 斯亚贝巴</w>
下 跌</w>
inter sessional</w>
R os
圣马力 诺</w>
7 .</w>
可靠 性</w>
严 厉</w>
electr ical</w>
bo l</w>
hi p</w>
quanti tative</w>
Per formance</w>
内 在</w>
com ings</w>
28 0</w>
记 录
建 制</w>
关键 问题</w>
胁 迫</w>
Id enti
selec t</w>
lon ged</w>
L ight</w>
毫无 疑问</w>
S CO</w>
l isten
accommo date</w>
不可 或
vir us</w>
文 莱
er s,</w>
conclud es</w>
Chall en
节 约</w>
斡 旋</w>
Mun icip
鲁 萨
所罗门 群岛</w>
flu ctu
fu sion</w>
划 拨</w>
介 绍
t am
p ush
mis siles</w>
人 体</w>
Mos cow</w>
2 46</w>
Cair o</w>
28 3</w>
fl ying</w>
2 47</w>
coordin ators</w>
col our</w>
鉴 定</w>
建 议
har v
excep tions</w>
非洲 人</w>
gu ard</w>
盘 旋</w>
A F
预防 措施</w>
ht m</w>
L IS
文 中</w>
抑 制</w>
年 份</w>
兰 国</w>
com prehen
述 及</w>
病 率</w>
over whel
O s
数 值</w>
宪法 法院</w>
Lib eration</w>
达 鲁萨
文莱 达鲁萨
2. 7</w>
答 案</w>
大 国</w>
rop ic</w>
R S</w>
混 乱</w>
exha us
记 忆</w>
教 堂</w>
指 责</w>
r ational</w>
circul ation</w>
D O
中 所</w>
Ex change</w>
Presid ency</w>
pr on
S k
苦 难</w>
inter view</w>
Consi dering</w>
种 群</w>
des k</w>
差 旅</w>
C ST</w>
一 段时间</w>
fashi on</w>
减 灾</w>
stan bul</w>
dil ig
Po si
COMMIT TE
Fam ilies</w>
standardi zed</w>
st e</w>
zh ou</w>
辩 护
深 入
CP R</w>
管理 机构</w>
伊斯坦 布尔</w>
2 24</w>
oc ation</w>
iti ous</w>
St .</w>
IM O</w>
缴 付</w>
将 军</w>
L i</w>
6. 5</w>
ill ness</w>
ys ical</w>
s at</w>
3 38</w>
文莱达鲁萨 兰国</w>
un likely</w>
ide al</w>
pertin ent</w>
parlia ment</w>
g ence</w>
sta ur
here with</w>
a j
不可或 缺</w>
pill ar</w>
break down</w>
区域 间</w>
ac tu
por ters</w>
wor se</w>
劳动 者</w>
Commer ce</w>
官 长</w>
保 罗</w>
coordin ates</w>
5. 5</w>
brief ed</w>
In surance</w>
mu tilation</w>
服务 器</w>
4 .4</w>
红十 字</w>
St ra
rail way</w>
未 有</w>
农 产品</w>
ou ts</w>
航 行</w>
博 物
mat ri
2 34</w>
明 年</w>
un ification</w>
dis man
acti vis
抢 劫</w>
中华 人民共和
拘 禁</w>
S ig
Emphasiz es</w>
mon o
degre es</w>
sol ar</w>
proc ess
民 用</w>
mo on</w>
suppl ement</w>
prosecu tor</w>
ay a</w>
2 5%</w>
分 娩</w>
ot a</w>
noti fy</w>
vis ual</w>
man kind</w>
个 案</w>
城市 化</w>
pe ac
职 员</w>
decisi ve</w>
受益 人</w>
不 明</w>
1. 15</w>
Ad d</w>
相 一致</w>
害 怕</w>
incorpor ation</w>
布雷 顿</w>
借 口</w>
sen ding</w>
F el
中 心
nar row</w>
2 31</w>
里 约
30 5</w>
ke e
patro l</w>
加 深</w>
伊拉克 政府</w>
理 事
不可 分割</w>
reli ability</w>
dom ain</w>
as king</w>
Transf er</w>
fall en</w>
Ex ecu
征 得</w>
扶 持</w>
15 %</w>
ir on</w>
bo ards</w>
欧 国家</w>
coun c
充分 考虑</w>
第二十 三届</w>
im migrants</w>
征 税</w>
al d</w>
Sud anese</w>
遵 约</w>
战略 性</w>
tri g
cros sing</w>
鹿 特
im ported</w>
ev ening</w>
com mentary</w>
experi mental</w>
无 关</w>
接 到</w>
适 宜</w>
introduc es</w>
expres s
Y P</w>
F M
第 一步</w>
Tok yo</w>
人 的
fac tory</w>
联 盟
COMMITTE E</w>
st ating</w>
I stanbul</w>
大 气</w>
夏 季</w>
暂 定</w>
所 致</w>
modul e</w>
il a</w>
commen cement</w>
occur s</w>
% 。</w>
被 害
大 的
乐 观</w>
不 法行为</w>
2 57</w>
缺 点</w>
in i</w>
Rot ter
CR IC</w>
Improv ing</w>
cu ts</w>
ur a</w>
拖 欠</w>
七 个</w>
Ah med</w>
鹿特 丹</w>
man ship</w>
ast ro
sor t</w>
s k</w>
sp heres</w>
Contin u
频 繁</w>
Rotter dam</w>
Pro tec
独立 国家</w>
prohibi ting</w>
liqu idation</w>
fe ed</w>
tur ning</w>
为 本</w>
一 体</w>
美 好</w>
以 下
expen se</w>
特别 法庭</w>
扣 押</w>
十 二
sol ved</w>
neighb our
freez e</w>
short comings</w>
h id
S ul
Cab inet</w>
ru b
f lights</w>
fe et</w>
counter parts</w>
I B
第十 三届</w>
益 于</w>
up coming</w>
receiv able</w>
Min im
主管 机构</w>
vi ti
develop ment.</w>
Res erve</w>
est ed</w>
Recom men
Amend ment</w>
resc ue</w>
for get</w>
resid ential</w>
3 5
program matic</w>
st ation
连 贯</w>
常 任
simul ation</w>
Ar ch
broad ly</w>
K ey</w>
一 笔</w>
adver sely</w>
增 效</w>
6. 3</w>
1 日</w>
支持 者</w>
(b )</w>
书 记
Re sident</w>
政府 部门</w>
Engine ering</w>
资金 来源</w>
Por t</w>
复 制</w>
出 台</w>
g ers</w>
切 割</w>
w ro
fur niture</w>
divor ce</w>
D ue</w>
文 森特</w>
奥 斯
19 66</w>
emerg ence</w>
两 国
Accoun ts</w>
c tic</w>
第十 条</w>
in sp
几 十年</w>
le um</w>
gre w</w>
固 定
农 场</w>
tari ff</w>
意 识
二氧化 碳</w>
关 岛</w>
ren ov
经济 学</w>
病 例</w>
托 管</w>
T A</w>
蓄 意</w>
国内 外</w>
ari ties</w>
自 行
hear ings</w>
Ex pendit
哥伦 比亚
dra ws</w>
特别 行政
bon ds</w>
tin y</w>
m as</w>
A D</w>
保护 区</w>
以 及
ER AL</w>
l or</w>
调查 表</w>
各 州</w>
her self</w>
G ir
prohib its</w>
M as
到 来</w>
运 动员</w>
发 布
四 分
mo vi
Prov isions</w>
univers ality</w>
mee ting
稳 定
simultan eously</w>
as sured</w>
no ise</w>
Enter prise</w>
T RA
Pl enary</w>
19 68</w>
leg islat
F ar
第六十 六</w>
sh oul
累 积</w>
注意 力</w>
satis fy</w>
UNIT ED</w>
陆 地</w>
comm only</w>
K it
解放 军</w>
um a</w>
Comm ander</w>
6 87</w>
p ush</w>
Ye ah</w>
挂 钩</w>
set tle</w>
affir med</w>
surviv ors</w>
po wered</w>
spir it
kee pers</w>
Sy m
Regis try</w>
P res
Add ress</w>
sol ving</w>
regul ating</w>
Wh ich</w>
苏 联</w>
PO PS</w>
poss ess</w>
Th an
h ol</w>
保护 措施</w>
mentari ans</w>
g ames</w>
ffe e</w>
exclud ing</w>
毒 性</w>
标 记</w>
row n</w>
相 结合</w>
at e
丁 斯</w>
主持 人</w>
yp e</w>
paren tly</w>
Bus h</w>
p our</w>
entreprene urship</w>
此 机会</w>
assum ptions</w>
at tain</w>
第一 款</w>
携 带</w>
sor ry</w>
disappe arances</w>
and ,</w>
三 大</w>
非洲 大陆</w>
这 样
尽 量
et te</w>
receiv es</w>
in alienable</w>
即 可</w>
s mil
总 量</w>
vo ters</w>
or bit</w>
b in</w>
代理 人</w>
militi a</w>
为 主</w>
spo t</w>
Conven tional</w>
尔 斯</w>
Th ank</w>
P os
改 动</w>
fu els</w>
拯 救</w>
几 天</w>
guid eline</w>
there after</w>
mat ure</w>
吸 毒</w>
w n</w>
( a)</w>
软 件
pres enting</w>
pass ing</w>
第二十 届</w>
好 像</w>
公 然</w>
ad just</w>
absten tions</w>
递 交</w>
所 定</w>
cooper ating</w>
标 签</w>
自 主权</w>
和 政</w>
sel ler</w>
贫 民
col onial</w>
现 在
解决 问题</w>
表示 ，
contra dic
up hold</w>
题 目</w>
一 代</w>
ex es</w>
慷 慨</w>
L ook</w>
创 伤</w>
传 递</w>
sk ill</w>
sis ter</w>
is tence</w>
M el
第一 阶段</w>
信 念</w>
poli tically</w>
driv er</w>
原 始</w>
ro tation</w>
re port
目前 为止</w>
存 者</w>
di an</w>
地 名</w>
侦 查</w>
tin ational</w>
clam ation</w>
不 足
rem itt
p ters</w>
- term</w>
客 户
boo k
监 视</w>
Mig rant</w>
Bag h
附 注</w>
侵 权
under tak
联 委会</w>
IT C</w>
ear marked</w>
世界 粮食
原 料</w>
we igh
v oted</w>
prop ag
author ize</w>
清 洗</w>
met res</w>
issu ing</w>
Mar ket</w>
Ab k
scre ening</w>
si veness</w>
short age</w>
相 符</w>
suppl ied</w>
ti er</w>
pre cur
p us</w>
deb tor</w>
At torney</w>
诸 多</w>
认 同</w>
益 处</w>
up dates</w>
T C</w>
一 大</w>
Opportun ities</w>
这 两项</w>
rec ycl
u ght</w>
S D
co ast</w>
IC RC</w>
k m</w>
crit er
運 動
连 同</w>
药 物
来 ，
壁 垒</w>
对 手</w>
pref erred</w>
编 入</w>
三 种</w>
virtu e</w>
Ge orge</w>
J ul
言 之</w>
29 0</w>
纤 维</w>
optim al</w>
mort g
气 象
各 样</w>
lim iting</w>
F em
研 发</w>
交 存</w>
that ,</w>
it ably</w>
殴 打</w>
commen ced</w>
Ma ke</w>
econom ics</w>
tribu te</w>
distingu ished</w>
Indi vidu
特 色</w>
Pr ince</w>
Cred entials</w>
8 5
wro te</w>
Ris k</w>
环 节</w>
pre dec
生产 率</w>
联合国 贸易
impe di
fail s</w>
mag az
Semin ar</w>
回 归</w>
迈 出</w>
联合国贸易 和发展
私 有
pro active</w>
particip ant</w>
Electr onic</w>
u tility</w>
K am
con ve
联合国贸易和发展 会议</w>
发 明</w>
借 此机会</w>
os o
dismis sed</w>
oc curren
inc itement</w>
2 19</w>
三 十
M it
2 45</w>
判 刑</w>
tot ally</w>
B or
通 道</w>
de tri
cred itor</w>
Docu mentation</w>
li ft</w>
ac tor</w>
ac ies</w>
不 用</w>
r on</w>
M ari
场 合</w>
Rad io</w>
Pre ven
C lin
ro g
互 助</w>
O C</w>
v in
inter dependence</w>
dele ted</w>
显 得</w>
2 75</w>
格林纳 达</w>
前 所
局 长</w>
努力 实现</w>
st em
quanti ties</w>
财政 部</w>
函 数</w>
visi bility</w>
contro ver
claim ants</w>
appropri ations</w>
flu or
进 而</w>
mil it
Eng land</w>
拆 除</w>
on to</w>
fav or
el e
Rom an</w>
浪 费</w>
l un
顾 客</w>
西 藏
w inter</w>
Ne ws</w>
NAT IONS</w>
28 4</w>
阿卜 杜
充 当</w>
re con
annex ed</w>
Consi der</w>
retur nees</w>
负 担
经常 性</w>
量 化</w>
casu alties</w>
可 怕</w>
全 额</w>
谈 话</w>
筹备 会议</w>
M B
pro longed</w>
28 8</w>
analy sing</w>
开 罗</w>
到 底</w>
inst alled</w>
格 达</w>
想 到</w>
动 用</w>
派 驻</w>
c essation</w>
AT IONS</w>
ses sion
介 入</w>
sinc ere</w>
express ly</w>
Pre vent</w>
这 一
水 准</w>
correc tions</w>
repl ied</w>
arre ars</w>
被害 人</w>
mis conduct</w>
幸 存者</w>
高 效率</w>
develop mental</w>
大 臣</w>
atic s</w>
adap ted</w>
ab ide</w>
Main tenance</w>
莫 斯科</w>
婚 姻
argu es</w>
匹 配</w>
肇 事
cros s
世界粮食 计划署</w>
ic ians</w>
女 子</w>
diam onds</w>
良 心</w>
aw a</w>
接 待</w>
圣 文森特</w>
acc ede</w>
UNF IC
中央 银行</w>
Recon c
土著 居民</w>
措 词</w>
条 约
所 得
l i</w>
Sub si
品 牌</w>
W ang</w>
U sing</w>
Govern or</w>
2 59</w>
S chem
闭 幕</w>
同 行</w>
ren sic</w>
ad here</w>
ac tment</w>
走 私</w>
赤 道
no tic
po sted</w>
z es</w>
S EC
裁 撤</w>
mil k</w>
os si
clo thing</w>
Gren ad
本 质</w>
theore tical</w>
sp ouses</w>
liveli hood</w>
Al tern
第 七</w>
ri gh
graph ic</w>
7. 5</w>
该 次</w>
mat h</w>
吸 取</w>
中 ，
O thers</w>
Bl ue</w>
A spects</w>
克 尔</w>
阵 地</w>
直 布罗
不 限</w>
无 辜</w>
多 么</w>
qual ification</w>
Lia ison</w>
non- governmental</w>
分 区</w>
att aches</w>
军 备
paren tal</w>
收 入
destro y</w>
cau ght</w>
抓 住</w>
Pa ul
他 的
dis pat
af raid</w>
ist ants</w>
不 确定性</w>
判 定</w>
现 况</w>
对 联</w>
diplom acy</w>
人民 政府</w>
where ver</w>
err al</w>
应 收款</w>
主 导
还 会</w>
引 进</w>
回 复</w>
at u</w>
多 方</w>
repar ation</w>
Trav el</w>
引 用</w>
坦桑 尼亚</w>
a sts</w>
违 法</w>
in tent</w>
数 字
o gen
b ought</w>
地 说</w>
pri me</w>
G oods</w>
本 书</w>
st ar</w>
h ate</w>
今 天
签 署
perpetr ated</w>
circl ed</w>
Tre aties</w>
D D
expe dite</w>
ne sty</w>
inc en
consul ted</w>
run s</w>
可 疑</w>
tra ge
ong a</w>
hy gi
discre tion</w>
desi red</w>
cap ture</w>
E arly</w>
6 9
格林纳 丁斯</w>
多边 贸易</w>
癌 症</w>
br and</w>
A sh
S hel
场 地</w>
火 器</w>
博物 馆</w>
Wil li
allevi ation</w>
in consistent</w>
相 辅
ab duc
Gren ada</w>
sup posed</w>
加 重</w>
运 人</w>
weak nesses</w>
cl arity</w>
西 藏</w>
相辅 相
免 除</w>
gran d
着 眼
lic ence</w>
rev isions</w>
特 朗
sp ouse</w>
pharm aceu
F l
4 5
f ai
紧张 局势</w>
便利 化</w>
文化 遗产</w>
st ories</w>
渴 望</w>
ra m
p al
re staur
时 说</w>
lingu istic</w>
规 范
协商 会议</w>
金 钱</w>
land s
con vey</w>
altern ate</w>
IV E</w>
policy making</w>
Im migration</w>
isol ation</w>
那 儿</w>
不 必要</w>
m apping</w>
A z
央 行</w>
十 七届</w>
战略 方针</w>
发 病率</w>
预 审</w>
三 方</w>
28 5</w>
养老 金</w>
iqu é</w>
成 功
再 度</w>
pen sions</w>
scre en</w>
Ac ts</w>
ap ped</w>
相辅相 成</w>
foo t</w>
Min orities</w>
pend able</w>
col umn</w>
Com e</w>
e uro</w>
V o
H ot
孤 立</w>
un necessary</w>
h el</w>
实 用</w>
UNFIC YP</w>
远 程</w>
c k
整 套</w>
展 览</w>
countri es.</w>
Equ atorial</w>
tou ch</w>
lin king</w>
Liber ian</w>
excee ding</w>
car s</w>
60 %</w>
mag nit
ev ic
欧 元
enabl es</w>
per secu
麻 烦</w>
维 斯</w>
技术 性</w>
substitu te</w>
dissemin ating</w>
ar sen
中 立</w>
modul es</w>
意 见
lin ear</w>
it a</w>
ash ed</w>
divi de</w>
相 称</w>
模 板</w>
newspap er</w>
sc ore</w>
audi ence</w>
accompl ished</w>
Sta bil
里 程
第三 章</w>
违 约</w>
fa ult</w>
权 利
es cape</w>
emphasiz ing</w>
贯 彻</w>
对 本</w>
拒 绝
entreprene urs</w>
adverti sing</w>
minis ter</w>
g n
牺 牲</w>
us age</w>
A N</w>
Grenad ines</w>
薄 弱</w>
此 案</w>
mor at
联 系
制造 业</w>
2 3.
反 应
s '</w>
is tic
restric t</w>
就是 说</w>
sex ually</w>
acti viti
A T</w>
选 项</w>
房 地产</w>
妥 协</w>
出 生
多 重</w>
High er</w>
无论 如何</w>
d ful</w>
19 58</w>
stres sing</w>
素 质</w>
pro minent</w>
Bon n</w>
ref use</w>
in comes</w>
2 39</w>
酒 店</w>
第六 十</w>
马 斯</w>
异 常</w>
不 适</w>
pun ishable</w>
逆 转</w>
一 辆</w>
毫 不</w>
私 人
ep ing</w>
confisc ation</w>
， ”
一个 月</w>
corpor al</w>
2 56</w>
音 乐
iri es</w>
bal lot</w>
Adop ted</w>
一 批</w>
incumb ent</w>
i tive</w>
一 座</w>
， 不
默 德</w>
革 新</w>
基 层</w>
c us</w>
种 子</w>
争 论</w>
Gib ral
famili ar</w>
jeop ardi
vis a</w>
Co alition</w>
美 丽</w>
rac ist</w>
plan et</w>
De struction</w>
特朗 普</w>
inten d</w>
design ate</w>
管理 部</w>
战略 规划</w>
na issance</w>
旅 馆</w>
h em
肇事 者</w>
瓦 努
专 利</w>
二 苯
amb itious</w>
ves sel</w>
10 ,
精 力</w>
年 级</w>
Gu am</w>
W he
答 辩</w>
domin ant</w>
detec t</w>
3 65</w>
限制 性</w>
En ti
至 迟</w>
qual itative</w>
GEN ERAL</w>
licen sing</w>
穆 罕
刑事 犯罪</w>
保持 一致</w>
ul ative</w>
war rant</w>
部长 会议</w>
Mon t
noti fied</w>
sh ed</w>
fin anci
fer tility</w>
ag ers</w>
en th
ass ault</w>
性别 歧视</w>
system ic</w>
ali ens</w>
2. 8</w>
采取 任何</w>
K im
荣 幸</w>
分 项</w>
出 席会议</w>
tend ency</w>
respec ting</w>
ha ven</w>
举 报</w>
tim ing</w>
cre ates</w>
cent red</w>
ab ed</w>
nat ur
阿布 哈
核 心
发言 稿</w>
rec ourse</w>
和平 部队</w>
invest ed</w>
M T
t welfth</w>
199 1
中华人民共和 国
super visory</w>
consequ ently</w>
Reconc iliation</w>
接 种</w>
sam ples</w>
de d
不 但</w>
2 62</w>
余 留</w>
ple asure</w>
全国 性</w>
recon naissance</w>
be d
克 斯坦共和国</w>
限 额</w>
vis itors</w>
gr y</w>
生产 者</w>
endeav ours</w>
collec tively</w>
pan els</w>
不 良
confidenti ality</w>
beli efs</w>
加 紧</w>
monit ors</w>
信 誉</w>
safegu arding</w>
党 派</w>
a part</w>
书记 官</w>
咖 啡</w>
unanim ously</w>
an ,</w>
19 50</w>
E X
announ cement</w>
G O
决 定性</w>
al ty</w>
UNO MI
Stres sing</w>
瓦努 阿
M og
she et</w>
要 是</w>
IA L</w>
Ab out</w>
7 th</w>
几 项</w>
清 晰</w>
P ay
ro ck</w>
环 保</w>
Bagh dad</w>
品 质</w>
e w
Au t
t act</w>
contin gents</w>
sen sing</w>
二苯 醚</w>
p a</w>
hand led</w>
Americ as</w>
di min
G U
何 时</w>
it ely</w>
busin ess
奥运 会</w>
teor ological</w>
gradu al</w>
for d</w>
en teenth</w>
Docu ments</w>
结 核</w>
G on
explo red</w>
appor tionment</w>
ch er</w>
w are
UN IS
自治 区</w>
小 规模</w>
数 学</w>
m ad
CRP .1</w>
90 %</w>
magnit ude</w>
应 是</w>
U ses</w>
D ou
服务 业</w>
t ancy</w>
plat forms</w>
开 幕
i on
chair man</w>
ur in
sub programmes</w>
L ou
j um
clear ing</w>
成 为
健康 状况</w>
exam inations</w>
Ch urch</w>
暴 行</w>
privileg es</w>
objec tions</w>
国 有
商 店</w>
各 省</w>
tonn es</w>
承包 者</w>
acknowled ges</w>
赋 权</w>
属 性</w>
certi fied</w>
集 体
re alizing</w>
patro ls</w>
land mines</w>
彻 底
arran ge</w>
第八 条</w>
rel ess</w>
ig no
valu ed</w>
4 4
亿 美元
极 为重要</w>
stimul ate</w>
联合 行动</w>
z y</w>
M ary</w>
C ris
新 增</w>
S olid
借 助</w>
marri ages</w>
70 %</w>
2 72</w>
N ear</w>
声 援</w>
墨西 哥
ag o
一致 意见</w>
subsi di
忽 略</w>
大 程度</w>
att acked</w>
只 会</w>
经济 学家</w>
司 机</w>
勤 人员</w>
infec ted</w>
individu ally</w>
创 新
性 健康</w>
直布罗 陀</w>
quot a</w>
朝 着</w>
成 本
货币 基金</w>
neutr al</w>
accred itation</w>
W M
allevi ate</w>
B ern
CA RIC
雷 斯</w>
rev olution</w>
Gu ang
criter ion</w>
动 产</w>
供应 链</w>
Achi ev
Tr ump</w>
i able</w>
赤道 几内亚</w>
神 经
happ iness</w>
An g
巴 格达</w>
消耗 性</w>
ex pendable</w>
阿布哈 兹</w>
密 度</w>
受益 者</w>
进 来</w>
孤 儿</w>
危险 废物</w>
当 地
第七 十
年 ，
不 好</w>
ht ml</w>
K P</w>
urban ization</w>
politici ans</w>
Sc ot
x i
agre es</w>
居 留</w>
resour c
confir mation</w>
mot or</w>
defici ency</w>
2 29</w>
犯罪 活动</w>
W all</w>
drin k</w>
f ly</w>
中 午</w>
学 员</w>
mechan ical</w>
accred ited</w>
De ta
我 的
Vi et
5 3
0. 7</w>
il legally</w>
foot ball</w>
tradi tionally</w>
下 令</w>
平等 权利</w>
satell ites</w>
seg ments</w>
expec ts</w>
cere mony</w>
瓦努阿 图</w>
南斯拉夫 联盟
revis e</w>
铲 除</w>
女 工</w>
Rel ig
证 明
敌 对</w>
军备 竞赛</w>
辅 导</w>
tur n
broad cast</w>
梦 想</w>
exha usted</w>
V E
南斯拉夫联盟 共和国</w>
restric tion</w>
Regis tration</w>
皮 肤</w>
ot ropic</w>
令人 遗憾</w>
spectr um</w>
re location</w>
愿 景</w>
深 感</w>
wrong ful</w>
shor tly</w>
穆罕 默德</w>
is ely</w>
Peri odic</w>
inven tories</w>
Rob ert</w>
re ci
时 候
工程 师</w>
contin ental</w>
ber t</w>
成 员
总 的
信 仰
犯罪 者</w>
ir regular</w>
2 63</w>
运 转</w>
pher ic</w>
explo sives</w>
Minim um</w>
电 力
第十 二条</w>
L. 3</w>
到 期</w>
任 务
糟 糕</w>
invo ked</w>
CN. 7</w>
slow ly</w>
i z</w>
Stabil ization</w>
H ence</w>
impl y</w>
半 岛</w>
viol ating</w>
波 恩</w>
applic ants</w>
Eth ics</w>
联合国 安全理事会</w>
犯 人</w>
soci ally</w>
multi pl
力 学</w>
Effec ts</w>
r are</w>
土地 利用</w>
2 1.
时 应</w>
抵 制</w>
强制 执行</w>
C as
K a
思 维</w>
h an</w>
soci et
B order</w>
Appl ications</w>
20 ,000</w>
某 种
得 起</w>
审 判
instal ment</w>
construc ted</w>
被 控</w>
手 机</w>
卖 方</w>
ter ri
commen ds</w>
De sign</w>
re n</w>
CARIC OM</w>
hal t</w>
需 求
ro ster</w>
earli est</w>
piec es</w>
参 考
Y ear
Strength en</w>
reserv ed</w>
回 国</w>
含 水
posi um</w>
Tre asury</w>
Dispu te</w>
vir tually</w>
defin es</w>
严格 遵守</w>
难 题</w>
exemp tion</w>
bel ong</w>
aim ing</w>
volun teers</w>
c a</w>
马 克</w>
作出 反应</w>
上 海
高等 法院</w>
Sup ple
N av
冷 战</w>
dec lining</w>
存 储</w>
Di plom
suppl ier</w>
sh ad
pre ference</w>
Lor d</w>
C ali
A ri
是 否
Tax onomy</w>
C N</w>
拉 巴
up grade</w>
excee ded</w>
一 句</w>
pens ation</w>
kid n
CO 2</w>
占 据</w>
医疗 保险</w>
Rev ised</w>
vari ed</w>
some what</w>
car ries</w>
29 2</w>
neighb ours</w>
In f
En forced</w>
注 射</w>
仓 库</w>
en tail</w>
宽 容</w>
了 一
scen ario</w>
Provi ding</w>
悲 剧</w>
T om
er .</w>
se es</w>
P ra
联 阿</w>
h ence</w>
Hos p
jour nal</w>
bl ock
s pre
规 律</w>
Comb ating</w>
民 航</w>
习惯 法</w>
周 知</w>
disc oura
替 换</w>
垃 圾</w>
pan dem
分 组</w>
3 70</w>
简 介</w>
coun cil</w>
股 东</w>
表 演</w>
环境 卫生</w>
A li
后 裔</w>
ji ang</w>
feren tial</w>
pre mi
所 起</w>
Gr and</w>
3 60</w>
对 外
ed ge</w>
CN. 15</w>
第七 章</w>
a er
Adv ice</w>
publ ish</w>
expl oring</w>
l ler</w>
Con solid
扶 贫</w>
外 来</w>
自 卫</w>
西 撒</w>
depart mental</w>
respond ents</w>
前所 未有</w>
产 业
ill iteracy</w>
Part nerships</w>
inv esting</w>
SA T</w>
资 产
课 题</w>
brief ly</w>
Cham bers</w>
Al ex
电 池</w>
休 息</w>
threat ening</w>
disappe ared</w>
dis closed</w>
部 分
Imp act</w>
under p
st ,</w>
大陆 架</w>
schol ar
fem ales</w>
基 线</w>
work plan</w>
Gibral tar</w>
， 我们
MINUR SO</w>
受 过</w>
remark able</w>
re fin
commen d</w>
尊 敬</w>
ex it</w>
accor d</w>
注 册
复 审</w>
comp ound</w>
ang le</w>
Rec alls</w>
pass age</w>
endor sement</w>
vi br
l acking</w>
er ly</w>
bound aries</w>
V anu
解 散</w>
第二 节</w>
Com petition</w>
ph y
有 趣</w>
利 斯</w>
八 个</w>
ful l
pl as
合 办</w>
vi g
取 向</w>
C IS
人民 政府
re mind</w>
dang ers</w>
al ignment</w>
Swe dish</w>
模 糊</w>
consolid ating</w>
Lt d</w>
执行 机构</w>
一 边</w>
rec over</w>
projec tions</w>
W a
东 京</w>
har dly</w>
线 性</w>
汲 取</w>
pre requisite</w>
thir teenth</w>
m ative</w>
Grou ps</w>
慈 善</w>
, '</w>
省 级</w>
rou tes</w>
haz ards</w>
tu tion</w>
2 67</w>
incen tive</w>
b all
F ish
宣 读</w>
def erred</w>
却 是</w>
thor ou
under stand
可 见</w>
arran ged</w>
o res
方 法
posi tively</w>
f an</w>
H eld</w>
En suring</w>
i at
er s.</w>
ur an
C ould</w>
跨 部门</w>
管 道</w>
损 伤</w>
得 知</w>
变 化
.. ..</w>
竞争 法</w>
v an
tra g
17 01</w>
群 众</w>
结 核
撰 写</w>
外 汇
ment s.</w>
重 计</w>
信 件</w>
u ri
co ffee</w>
G l
禁 产</w>
peace -
f arming</w>
In clud
必要 条件</w>
投 标</w>
num er
传染 性</w>
智 慧</w>
respec ts</w>
U mo
Neg oti
立法 机构</w>
确 性</w>
leg ality</w>
i ka</w>
社 团</w>
magne tic</w>
bre aking</w>
pers istence</w>
em power</w>
Appro ach</w>
sk i</w>
contribu tors</w>
curren cies</w>
typ ical</w>
人 生</w>
Is lam</w>
时 机</w>
T om</w>
Spe ak
revit alization</w>
undertak ings</w>
cha pters</w>
00 ,000</w>
2 4.
consci ence</w>
ma them
harmon ize</w>
澳 门
9 th</w>
过 时</w>
trans late</w>
新闻 稿</w>
II .
Emphasiz ing</w>
劳动 法</w>
B ak
民主 化</w>
Umo ja</w>
收 购</w>
拉 姆</w>
gu y</w>
Compl iance</w>
re new</w>
民 用
大 纲</w>
nine teenth</w>
fail ing</w>
bl oc
Presid ential</w>
海 啸</w>
seg reg
diam ond</w>
in sur
Conserv ation</w>
Cali for
cou ldn</w>
有 没有</w>
国家 计划</w>
Vanu atu</w>
O L</w>
自 杀</w>
op posite</w>
fi x
扩 张</w>
th r
从 业
领 域
一 块</w>
olu tions</w>
Dec isions</w>
身 心</w>
有 效率</w>
c os
perc eption</w>
Polic ies</w>
购 买
有 毒</w>
注 销</w>
ot echn
差 旅费</w>
居 民
卡 拉</w>
公 职人员</w>
众 所
tax ation</w>
ob ile</w>
nation wide</w>
Prac tices</w>
空 气
proce eded</w>
实 况</w>
as ting</w>
T elecommun
su nam
question ed</w>
药物 滥用</w>
pl astic</w>
加 以
以色列 政府</w>
tion ality</w>
oper ates</w>
Dan ish</w>
捕 鱼</w>
战略 目标</w>
the at
兵 役</w>
ti a</w>
kin dly</w>
娱 乐</w>
选择 性</w>
流动 性</w>
rec osting</w>
飞 离</w>
造 林</w>
实 力</w>
历史 性</w>
cl a
奴 隶
处 长</w>
招 标</w>
n ice</w>
S in
dynam ics</w>
J ab
交 叉</w>
p ts</w>
diver sion</w>
acceler ating</w>
Requ est</w>
合理 化</w>
ga ther</w>
olu tionary</w>
arri ve</w>
金融 市场</w>
commen ce</w>
Portu gu
深 化</w>
rol ling</w>
K iv
15 14</w>
烟 草</w>
伯 利</w>
fil ing</w>
瑞 士
焦 点</w>
推 定</w>
discus ses</w>
两 天</w>
n ants</w>
g er
多 数
s i</w>
H an
direc tions</w>
Pri or</w>
Per haps</w>
F S</w>
殖民 主义</w>
def ault</w>
A le
ti ously</w>
deple ting</w>
着眼 于</w>
8 .</w>
省 份</w>
外 勤人员</w>
infr ing
said .</w>
28 6</w>
百 万美元</w>
市 镇</w>
东 亚</w>
won dered</w>
amen ding</w>
5 .4</w>
199 0
热 情</w>
p estici
critic ism</w>
compris ed</w>
batt le</w>
S p
Iv orian</w>
水 平
Un iver
Schem e</w>
Establ ish</w>
su spects</w>
prec isely</w>
ev id
canc ellation</w>
理 性</w>
W ast
征 收</w>
优 秀</w>
公 安
作 家</w>
ex pi
de fe
3 16</w>
感 受</w>
shel ters</w>
Moham med</w>
pon ent</w>
forec ast</w>
Coun sel</w>
快 速
accum ulation</w>
IN F
而 易
维 奇</w>
吗 ？</w>
饮 食</w>
这 家</w>
同 性恋</w>
创 立</w>
l isten</w>
on ed</w>
司法 程序</w>
问 卷</w>
飞 越</w>
燃 烧</w>
st ag
神 经</w>
受 援
ch e</w>
7 50</w>
categ or
封 信</w>
热 带</w>
8 th</w>
移 动
爸 爸</w>
号 码</w>
pl ur
Mar shall</w>
syn thesis</w>
hy per
A w
alco hol</w>
Th ough</w>
被 告
Se y
多 尼亚</w>
图 瓦
Agre ements</w>
生物 武器</w>
侵权 行为</w>
加 迪
t ank</w>
说 。</w>
抚 养</w>
are as
回 报</w>
publ ishing</w>
营 销</w>
P sych
制造 商</w>
pe red</w>
lo d
加 利</w>
reason ably</w>
occur ring</w>
inf lic
commit ting</w>
V e
counc ils</w>
ã o</w>
财政 年度</w>
兑 现</w>
ne e</w>
28 7</w>
spons or</w>
remov ing</w>
infec tions</w>
Mar tin</w>
st am
越 境</w>
s oph
gra vity</w>
elimin ated</w>
a is</w>
H ass
金 伯利</w>
里程 碑</w>
适 应
第二 项</w>
contex ts</w>
详细 资料</w>
C ent
28 1</w>
航空 公司</w>
rup ted</w>
en quiry</w>
E igh
haz ard</w>
本 法
图瓦 卢</w>
re pa
driv ers</w>
cha ins</w>
高度 重视</w>
exclud e</w>
at en</w>
concep tual</w>
Subsi diary</w>
聚 集</w>
名 为</w>
pres sures</w>
ari al</w>
独 联
安 盟</w>
监 测
前 体</w>
l ity</w>
IMI S</w>
社会 保险</w>
盈 余</w>
pre fer
B DE</w>
沙 特</w>
are r</w>
UNDA F</w>
R I</w>
I FA
贵 国</w>
致 命</w>
日 常
众所 周知</w>
pat ent</w>
受援 国</w>
人口 普查</w>
g lo
rec re
Mog ad
morat orium</w>
非 盟</w>
敏 感
按 时</w>
尽量 减少</w>
健康 权</w>
urin ational</w>
es hip</w>
证 据
rou tine</w>
m outh</w>
挑 战
low ship</w>
dest abil
comple ting</w>
空 白</w>
避 孕
b one</w>
送 到</w>
ti gh
ore station</w>
eless ness</w>
answ ers</w>
维 尔
in ability</w>
sit ting</w>
modi fication</w>
第四 章</w>
T ER</w>
切实 有效</w>
Inspec tors</w>
财 力</w>
西班牙 文</w>
friend ship</w>
e um</w>
理事 国</w>
结核 病</w>
10 00</w>
28 .
游 客</w>
sem i</w>
s cour
G B
indic ative</w>
综 述</w>
De tention</w>
Citi zens</w>
塞浦路 斯
喀 里
cl ock</w>
作 证</w>
理 学</w>
mod est</w>
st on</w>
继续 加强</w>
ph ased</w>
pan ell
， 也
表 决权</w>
研 训</w>
chair s</w>
统计 资料</w>
highligh ting</w>
Mogad ish
太阳 能</w>
Braz ilian</w>
发展 部</w>
人民代表 大会
日 刊</w>
stead ily</w>
k in</w>
PRES ID
急 剧</w>
mil es</w>
附 表</w>
定 稿</w>
hur t</w>
CO P
现 金
喀里 多尼亚</w>
collap se</w>
O IC</w>
科学 研究</w>
fre ight</w>
vir tual</w>
or a</w>
密切 相关</w>
c ad
重 债</w>
Si x</w>
承担 责任</w>
崩 溃</w>
避 孕</w>
信 用</w>
adoles cent</w>
or ous</w>
aggreg ate</w>
意 志</w>
中 欧</w>
sc ru
es sion
按 照
人 质</w>
conver s
Com pensation</w>
19 64</w>
修 理</w>
r ations</w>
stra ight</w>
g ases</w>
A WG</w>
socio economic</w>
su icide</w>
person ality</w>
Sen ate</w>
A ge
国际 委员会</w>
communic able</w>
6 4
红十字 国际委员会</w>
O NU
竞争 性</w>
教 材</w>
te a</w>
UNC DF</w>
B lack</w>
基 伍</w>
periodic ally</w>
it ated</w>
族 群</w>
姆 斯</w>
promis es</w>
mil l
Prin cipal</w>
保 人</w>
皇 家</w>
b ric
Portugu ese</w>
H az
十 二</w>
purch asing</w>
独联 体</w>
5 5
插 入</w>
工 具
bro ke</w>
re z</w>
forc ement</w>
c ast
not withstanding</w>
ab und
struc k</w>
交流 信息</w>
漂 亮</w>
d é
大 选</w>
t age</w>
rel uc
Re ference</w>
sym bol</w>
团 结
” “
Pl urinational</w>
纳 尔</w>
有 形</w>
isol ated</w>
c ence</w>
保 卫</w>
产 值</w>
湖 区</w>
tempor arily</w>
lif ting</w>
O wing</w>
怎么 样</w>
S H
潜 能</w>
explan ations</w>
搜 查</w>
col leg
不 多</w>
Be sides</w>
含水 层</w>
impl ies</w>
C ir
强 行</w>
par ad
mercen aries</w>
ESC R</w>
per su
tre mend
prospec t</w>
议 会
re produced</w>
地 向</w>
摩 加迪
常任 理事</w>
consult ant</w>
H ome</w>
I E
优 点</w>
u si
2 68</w>
私有 化</w>
免 于</w>
运 载
大 使馆</w>
7 .1</w>
桥 梁</w>
册 子</w>
不 利于</w>
decentr alized</w>
fif teenth</w>
consul ting</w>
demonstr ates</w>
贫民 窟</w>
英 镑</w>
延 伸</w>
公 正
v an</w>
di alog
伯 特</w>
口 粮</w>
veg e
t um
led ge</w>
g ating</w>
第二 款</w>
台 湾
pl ates</w>
industri alized</w>
各种 各样</w>
ur u</w>
抵 押</w>
南 北</w>
ver ified</w>
资源 分配</w>
阿 鲁
ul a</w>
coer cive</w>
X III</w>
环境 影响</w>
物 流</w>
uran ium</w>
A R</w>
oun ced</w>
Ne w
avoid ed</w>
v ice</w>
profes sion</w>
技术 咨询</w>
教 徒</w>
At las</w>
暴力 事件</w>
z i</w>
Ab y
某 人</w>
在 职</w>
Cam pa
饮 水</w>
vari ance</w>
Prin cip
沉 重</w>
延 续</w>
volun tar
O t
un de
hard ware</w>
Challen ges</w>
参与 性</w>
卡 车</w>
ash es</w>
用 语</w>
发 育</w>
w ounded</w>
1992 年</w>
1. 7</w>
法 郎</w>
期 限
L. 4</w>
美洲 国家
Institu tional</w>
公 平
ver sions</w>
f at</w>
UN MO
侦 察
3. 6</w>
1. 8</w>
一 并</w>
条 件
restric tive</w>
pre tty</w>
b ond</w>
德 拉</w>
renew al</w>
4 25</w>
Ver ification</w>
Mogadish u</w>
matri x</w>
美洲国家 组织</w>
Sup ply</w>
多 方面</w>
仿 真</w>
char t</w>
年 内</w>
method ological</w>
承 办</w>
德 国
e an
dic t
defici encies</w>
6 6
海 关
u re
pil es</w>
arch ives</w>
D NA</w>
报 导</w>
年 的
摩加迪 沙</w>
en su
y es</w>
J un
庞 大</w>
最低 工资</w>
eligi bility</w>
能 力
原 件</w>
Li kewise</w>
K now
一 切
ex act</w>
c .</w>
7. 3</w>
系统 性</w>
新闻 界</w>
aqu if
维 持
节 余</w>
Com par
我 能</w>
人 选</w>
Refuge e</w>
meth yl</w>
下 届</w>
den ly</w>
J ur
住 宿</w>
wor ry</w>
ess ence</w>
er ated</w>
ast y</w>
Chin a,</w>
出 身</w>
parlia mentarians</w>
Sub ject</w>
ra dic
em a</w>
第二 期</w>
Mon ey</w>
全 民</w>
本 项</w>
采 访</w>
列 报</w>
O r</w>
im posing</w>
abandon ed</w>
sum m
i p</w>
demonstr ations</w>
事 物</w>
nom ination</w>
fru str
资 发</w>
落 后</w>
有 时候</w>
c ab
尤 为</w>
under lines</w>
故 障</w>
定居 者</w>
T enth</w>
3 20</w>
De b
机 器
总 计</w>
履 约</w>
随 函</w>
re sts</w>
附 带</w>
ten ded</w>
首 相</w>
文 盲</w>
T N
An ton
不 是
quar terly</w>
nomin ations</w>
专 利
re bel
Pris on</w>
电视 台</w>
success or</w>
preserv ing</w>
lic ense</w>
Mu ch</w>
新 喀里多尼亚</w>
各项 措施</w>
澳大 利亚
创 收</w>
ar tif
贸易 协定</w>
trans form</w>
S atell
你 的
r at</w>
differen tial</w>
wa ke</w>
ar ization</w>
货 物
使 团</w>
c ann
学 年</w>
市 长</w>
fin alize</w>
视 角</w>
市场 经济</w>
CP. 7</w>
仲裁 庭</w>
一 本</w>
Guid ing</w>
bul k</w>
" .</w>
， 对
succee ded</w>
辞 职</w>
tin a</w>
30 4</w>
est ock</w>
蛋 白</w>
组 成员</w>
don 't</w>
Com pu
UN V</w>
S or
IT Y</w>
Enh ancing</w>
小 册子</w>
仪 器</w>
fo rensic</w>
Sun day</w>
服 装</w>
spo kes
hol e</w>
草 拟</w>
deb ts</w>
all ,</w>
Aby ei</w>
L ad
领 事</w>
汽 车
hard ship</w>
继 承
打 电话</w>
小 计</w>
br ac
r y
mar ital</w>
g ood
第二十 四届</w>
accompl ishment</w>
design ation</w>
毒 素</w>
公 斤</w>
永 久
正 常
immun ities</w>
aud ited</w>
postpon ed</w>
es cor
容 器</w>
六 种</w>
pro pri
pre ferential</w>
UNA MA</w>
inten sity</w>
bo x
V ol</w>
吸引 力</w>
pref er</w>
al ign</w>
Su cc
Jud ges</w>
concentr ate</w>
链 接</w>
in ity</w>
emb odi
den y</w>
2 79</w>
am ed</w>
请 愿</w>
发表 意见</w>
硬 件</w>
边 界
tu berculosis</w>
h ome
Jam es</w>
UNIT A</w>
train ers</w>
k n
influ enced</w>
Califor nia</w>
ti ary</w>
发电 机</w>
表 达
动 作</w>
马 绍
伴 随</w>
M aster</w>
多元 化</w>
d h
疗 法</w>
pen e
herit ance</w>
commun iqué</w>
应 计</w>
P N
MS IL</w>
哪 个</w>
T E</w>
rejec tion</w>
Fri ends</w>
arre sts</w>
R ico</w>
Fo rest</w>
Ex pl
假 如</w>
year ,</w>
tot alling</w>
培训 中心</w>
Solid arity</w>
输 出</w>
every where</w>
abol ished</w>
Po int</w>
不可 避免</w>
mil est
完 美</w>
dra matic</w>
att le</w>
100 %</w>
it ,</w>
der og
事 业
wh ol
bu ying</w>
显 示
pre si
推 翻</w>
en actment</w>
y el
v ot
sk a</w>
几 种</w>
两 人</w>
奴 隶</w>
Age ing</w>
Econom y</w>
易 于</w>
port al</w>
H un
参 观</w>
K .</w>
双 方
speci alist</w>
b ag
记 住</w>
看 着</w>
chec ks</w>
12 ,
坚 持
co alition</w>
ans wered</w>
il le</w>
S W
Gre en
si r</w>
4 3
Us er</w>
M ot
sensi tivity</w>
译 成</w>
trag ic</w>
ro t
deliber ate</w>
chair manship</w>
波 黑</w>
le tin</w>
到 了
t ants</w>
commen sur
peace keepers</w>
放 松</w>
大 麻</w>
出 入</w>
th re
read ily</w>
circu it</w>
联络 小组</w>
在 场</w>
p ile</w>
le ment</w>
id en
re vi
introduc tory</w>
devast ating</w>
19 65</w>
负 面</w>
里 克</w>
克罗 尼
an ge</w>
阿拉伯 语</w>
C M</w>
， 为
Fun da
N ev
基础 教育</w>
土 族</w>
人民 法院</w>
mis cellaneous</w>
Re habilitation</w>
Land locked</w>
细 菌</w>
密 克罗尼
G reat
19 62</w>
莱 德</w>
大会 堂</w>
De part
defin itely</w>
罢 工</w>
日 程</w>
hos tile</w>
Thom as</w>
L iv
ear ned</w>
Intel ligence</w>
公 式</w>
作 为
198 0s</w>
监督 机构</w>
K im</w>
势 力</w>
Mu ham
小 心</w>
S la
臭 氧
多 样</w>
impe tus</w>
海 军</w>
ul ty</w>
repu tation</w>
prin ted</w>
prec au
pre clud
( c
尸 体</w>
地 下</w>
x i</w>
获 准</w>
检查 站</w>
护 士</w>
审 前</w>
me ,</w>
安 德
soph istic
occurren ce</w>
6 .4</w>
症 状</w>
不 论
multilater alism</w>
la y
7 .2</w>
地 质</w>
hin dered</w>
0. 5</w>
U l
SA DC</w>
Proce dures</w>
致 函</w>
审计 报告</w>
clin ics</w>
aw aiting</w>
di c</w>
V arious</w>
既 然</w>
ter ror</w>
res ti
ha r</w>
En forcement</w>
幼 儿
中 文</w>
i ve</w>
ad ds</w>
艰 苦</w>
尔 群岛</w>
inc eption</w>
嫌疑 人</w>
gra in</w>
collabor ate</w>
R U
MD G</w>
Elec tions</w>
correc tly</w>
4 ,000</w>
3 67</w>
entitle ments</w>
dem ining</w>
Whe ther</w>
虚 拟</w>
C au
进 出</w>
vi d
tack ling</w>
is ,</w>
弱 点</w>
20 30</w>
parti te</w>
SG B</w>
IS O</w>
国 有</w>
L au
ty -
塞 舌
之 友</w>
mon th
仅 限于</w>
K al
公 开
伴 侣</w>
um es</w>
thorou ghly</w>
老 板</w>
re habil
mi x</w>
这 使</w>
under mined</w>
experi ments</w>
ai red</w>
Mac ao</w>
modi fy</w>
逃 离</w>
第六十 九</w>
Qu ality</w>
wel ve</w>
Cent res</w>
迎 接</w>
减 至</w>
web sites</w>
un encumbered</w>
市 政</w>
em an</w>
att ach</w>
Dis ability</w>
谈 论</w>
数 以
发 电</w>
con gres
MO NUS
阿卜 耶
vac ant</w>
Langu age</w>
禁 试</w>
MONUS CO</w>
Ar ran
A re
3 10</w>
风 格</w>
H and
neglec t</w>
exemp tions</w>
Appoin tment</w>
晋 升</w>
bre aches</w>
C IS</w>
斯 蒂
year s,</w>
M C</w>
立 刻</w>
日 向</w>
红十字 会</w>
FA R
29 5</w>
载 入</w>
推 动
Sat ur
惩 戒</w>
val u</w>
b right</w>
add endum</w>
上 述
st atic</w>
公 告</w>
00 1</w>
汤 加</w>
联 大</w>
rais es</w>
Jos é</w>
集 团
sp ati
D ut
传 输</w>
tion s,</w>
F er
ol ing</w>
or ative</w>
破坏 性</w>
巴 斯</w>
st ro
fi able</w>
WG .
学 生
ti ble</w>
pe ak</w>
9 .</w>
sym p
家 中</w>
agend as</w>
Q U
A CC</w>
剩 下</w>
commensur ate</w>
估 值</w>
co o
马绍 尔群岛</w>
d ress</w>
spirit ual</w>
R B
O L
出 庭</w>
prov es</w>
inter f
Tu valu</w>
Def ense</w>
Con di
vend ors</w>
soci alist</w>
b y
受到 限制</w>
rul ed</w>
平 面</w>
体 制
er ian</w>
制 备</w>
sunam i</w>
cred its</w>
股 票
6 ,000</w>
4. 6</w>
def en
初 始</w>
stream lining</w>
28 2</w>
毁 坏</w>
civil izations</w>
同 情</w>
prosecu tions</w>
Ex tra
整 理</w>
de struc
1994 ,</w>
令人 鼓舞</w>
resi dual</w>
A v
小 说</w>
tex t
interpre tative</w>
无 力</w>
应 收</w>
cul ar</w>
UND OF</w>
的 规定
感 器</w>
rec overed</w>
adequ acy</w>
金融 服务</w>
高 层</w>
该 股</w>
条 中</w>
Sub total</w>
depu ty</w>
绝 不</w>
sh ocks</w>
contrac ep
关 于
un ited</w>
me at</w>
claim ing</w>
reve al</w>
交通 运输</w>
管理 工作</w>
相互 作用</w>
passeng ers</w>
远 地区</w>
pack ages</w>
Ric hard</w>
新生 儿</w>
废 料</w>
met all
表 现
总 收入</w>
n ial</w>
sign atories</w>
nar r
S ign
Jo hn
3 30</w>
下 属</w>
develop ment,</w>
Secretary- Gener
人民 币</w>
plan es</w>
ten ing</w>
N ag
institu te</w>
Investig ations</w>
该 处</w>
窗 口</w>
p d
im pres
barri er</w>
reci proc
驱 逐
欧元 区</w>
produc es</w>
dum ping</w>
Rel ev
I bra
B ali</w>
challen ged</w>
Sey ch
e te</w>
G A
基 石</w>
所 知</w>
医 务</w>
un a</w>
li p
水 域</w>
war s</w>
Char les</w>
感 情</w>
Rec overy</w>
集 装
与 发展
youn ger</w>
Cour ts</w>
me .</w>
margin alization</w>
究 竟</w>
改 善
mul tinational</w>
E li
Di ffe
suspen d</w>
30 1</w>
2. 9</w>
紧 缩</w>
法 定
tro p
helicop ters</w>
Tibet an</w>
第四十 九届</w>
spo ken</w>
长 官</w>
induc ed</w>
lands cape</w>
ang ular</w>
Ch er
í a</w>
La ke</w>
sil ence</w>
play er</w>
fin ish</w>
ari os</w>
19 46</w>
To gether</w>
T H</w>
Un til</w>
ap parently</w>
Mor gan</w>
G row
fil ms</w>
监护 人</w>
正 面</w>
O R</w>
明 智</w>
拘 留
fe at
big u
Mus lim
CT BT</w>
2 74</w>
臭氧 层</w>
Y a
bri d</w>
探 测</w>
newspap ers</w>
nov el</w>
Cri mes</w>
萨 赫
comple mented</w>
青 年
k it</w>
din ner</w>
Mic ron
voluntar ily</w>
ta ught</w>
it o</w>
cal m</w>
严重 性</w>
19 54</w>
Assem bl
第七 次</w>
tis su
昂 贵</w>
tur ns</w>
phenomen a</w>
it ating</w>
inter regional</w>
Tra di
liqu idated</w>
B est</w>
An y
hygi ene</w>
Qu ar
执 照</w>
小 姐</w>
航 天</w>
F PA</w>
礼 物</w>
broad casting</w>
insul a</w>
eful ness</w>
表 述</w>
b ills</w>
M od
cri tici
anc e,</w>
撤 消</w>
var ying</w>
Je wish</w>
飓 风</w>
尤 其
侦察 机</w>
炮 弹</w>
就 此
控制 措施</w>
M ur
share holders</w>
o g</w>
M issions</w>
ra rely</w>
May be</w>
1993 ,</w>
igno red</w>
消费 量</w>
Argentin e</w>
平等 待遇</w>
塞舌 尔</w>
st ret
happen s</w>
charac ters</w>
拉 克</w>
W OR
audi o</w>
hy po
flow ers</w>
ak i</w>
ta bly</w>
fair ness</w>
w eg
tl ers</w>
U D
Sal es</w>
D al
多 人</w>
em powered</w>
保 养</w>
Oc eans</w>
m aps</w>
human kind</w>
不 让</w>
bir th
a be
O il</w>
lo sing</w>
facilit ates</w>
血 管</w>
样 本</w>
丧 生</w>
PRESID ENT</w>
i ć</w>
cr yst
X in
te d.</w>
reaffir ming</w>
err ors</w>
K har
Execu tives</w>
2 77</w>
techn olog
肿 瘤</w>
长期 以来</w>
电 脑
希 族</w>
horiz on
con secu
IN ST
不 会
stre ets</w>
school ing</w>
F unds</w>
履行 职责</w>
sac rif
Organ ic</w>
第 一项</w>
suspec t</w>
six teenth</w>
ir rig
cor ro
cooper atives</w>
COM MIS
， 其
flo od</w>
jud gements</w>
Tow ards</w>
H K
Ah mad</w>
译 员</w>
国际 电
comp iled</w>
有 利
de portation</w>
was n</w>
帮 助
substanti ated</w>
er o</w>
程序 性</w>
发 援</w>
p ick</w>
PO L</w>
通 报
玻 璃</w>
cycl es</w>
acc eding</w>
Air port</w>
奴隶 制</w>
after math</w>
Str uc
Ex port</w>
宇 宙</w>
多 元</w>
国际 金融</w>
Com men
h owever,</w>
In nov
雇 佣</w>
拥 有
C ateg
Ad ap
rou s</w>
参 议院</w>
Glob alization</w>
absolu tely</w>
in scri
Chair men</w>
三 年期</w>
w ouldn</w>
re medi
民 政</w>
暴 露</w>
它 们
内 政</w>
recip ients</w>
impe de</w>
rel la</w>
jo ining</w>
ris en</w>
Re stric
Projec ts</w>
里 奥</w>
负担 得起</w>
全 力支持</w>
a a</w>
Sch edul
g le</w>
am i</w>
Thir ty</w>
在 外</w>
ther mal</w>
t une</w>
Than ks</w>
转 达</w>
bur d
实 在</w>
wis dom</w>
k er
en i
函 件</w>
bl ocks</w>
该 案</w>
Supple mentary</w>
respon ds</w>
D ak
身份 证</w>
患 有</w>
E lev
sur ge</w>
P .</w>
K ur
ten s</w>
in heritance</w>
董 事
大 战</w>
rec ession</w>
cho os
各 届</w>
印度 洋</w>
t s
est er</w>
Add. 6</w>
am bigu
镇 压</w>
届 满</w>
advoc ated</w>
一 片</w>
29 1</w>
兵 力</w>
Seych elles</w>
P re</w>
univers ally</w>
clu b</w>
bus y</w>
贷 款
CM P.1</w>
经 由</w>
pon ents</w>
通 讯
忧 虑</w>
ann a</w>
Virg in</w>
P D</w>
Em bass
生育 率</w>
以 使</w>
aw a
Egyp tian</w>
propos ing</w>
sev enteenth</w>
ri ous</w>
commen ted</w>
对 话
counter measures</w>
we d
feel ings</w>
expedi tiously</w>
R D</w>
特 许</w>
sh op
oni alism</w>
ick ness</w>
experi encing</w>
驾 驶</w>
杰 出</w>
e sia</w>
con form</w>
防 御</w>
传 感器</w>
7 7
UN S
Har mon
W i
In stru
附 有</w>
愉 快</w>
roc ket</w>
r ating</w>
Know ledge</w>
剂 量</w>
ob struc
C ases</w>
defend ant</w>
tremend ous</w>
compati bility</w>
sta ke</w>
Le e</w>
micro finance</w>
For ty</w>
19 45</w>
29 9</w>
检察 院</w>
实 时</w>
ta bl
Some times</w>
预 警
国 情</w>
ve ,</w>
ep h</w>
attrac tive</w>
源 自</w>
欧 盟
Great er</w>
res ,</w>
harmon ious</w>
over coming</w>
阻 挠</w>
ple dge</w>
M en
宪 政</w>
Grow th</w>
12 44</w>
假 期</w>
ir rever
pi on
道 理</w>
holid ay</w>
消 极
accep ting</w>
Embass y</w>
5. 6</w>
erad icating</w>
深 表</w>
2 6.
w ine</w>
liqu idity</w>
fi el
re bel</w>
identi fies</w>
L .</w>
结 社
法 制</w>
最 小</w>
反 复</w>
me tric</w>
are n</w>
自己 的
dilig ence</w>
t ap
知 名
mach ines</w>
vil le</w>
detec ted</w>
5 50</w>
gra ph</w>
2 73</w>
over due</w>
Sum mer</w>
非洲 统一
巴勒斯坦 国</w>
mean time</w>
交 往</w>
X X</w>
陪 同</w>
非洲统一 组织</w>
mov es</w>
二 级</w>
B ir
pro ud</w>
UN TA
T onga</w>
信仰 自由</w>
读 者</w>
第三 节</w>
E vid
贝 鲁
玛 丽</w>
不 符</w>
(c )</w>
议 案</w>
ain e</w>
列 明</w>
N y
职 司</w>
beg ins</w>
8 8
而 已</w>
clu sters</w>
严重 威胁</w>
re rs</w>
electr on
cou pled</w>
atin gs</w>
UN ME
Jos eph</w>
试 验
deman ded</w>
appoin ting</w>
L ove</w>
acc essing</w>
Ac tions</w>
log ic</w>
路 上</w>
普 林
平 静</w>
et ting</w>
黄 金</w>
阿拉伯 人</w>
gar den</w>
contam inated</w>
着 重于</w>
一 轮</w>
主 权
ar do</w>
accur ately</w>
萨赫 勒</w>
特别 强调</w>
P ot
2 78</w>
te en
出 资</w>
emo tional</w>
提高 效率</w>
扭 曲</w>
介绍 性</w>
切 尔
第十 七条</w>
直 辖
贯 穿</w>
机 械
在此 期间</w>
f urther
S R</w>
一 节</w>
recycl ing</w>
pandem ic</w>
Min es</w>
L R</w>
Mul ti</w>
1 ,</w>
深 度</w>
tion s.</w>
qu ad
la p</w>
贯 彻
innov ations</w>
benefici ary</w>
tif ications</w>
resti tution</w>
de z</w>
depos ited</w>
benef iting</w>
Muslim s</w>
密 集</w>
Pap er</w>
结构 调整</w>
applic ability</w>
分 工</w>
阿卜耶 伊</w>
i .</w>
decid ing</w>
依 照
war ned</w>
chan ge
过渡 政府</w>
红 色</w>
astro ph
差 额</w>
inspec tors</w>
fo reg
媒 体
供 给</w>
b n</w>
实 用
clean ing</w>
Rad i
前 后</w>
供 其</w>
direc tives</w>
n av
f illing</w>
ero sion</w>
6 50</w>
制度 化</w>
亚 共和国</w>
发 射
nor m</w>
ci vic</w>
Sec t.
C I
Nor weg
CO UNC
IC A
结社 自由</w>
简 短</w>
civil ization</w>
19 55</w>
mo ther
defin ite</w>
S us
月 初</w>
但 是
serv er</w>
Hot el</w>
变 量</w>
day ,</w>
200 0
索 偿</w>
扫 雷</w>
it ch
bl ind</w>
第二十 六条</w>
neg atively</w>
Em powerment</w>
volati le</w>
Contrac ts</w>
大 学生</w>
Non etheless</w>
C at
人 工</w>
aud itors</w>
哲 学</w>
te ach</w>
每 届</w>
往 来</w>
之 类</w>
圣 多
负 有
ran king</w>
V ill
教 廷</w>
par ity</w>
CP C</w>
us ting</w>
总 局</w>
obvi ously</w>
COUNC IL</w>
， 你
法 国
及 时
ke y
大 气
逾 期</w>
普遍 存在</w>
N az
en erg
Micron esia</w>
军 方</w>
invest or</w>
M SP</w>
De fin
犹太 人</w>
传 媒</w>
pre trial</w>
ar ray</w>
Res pec
Cal edonia</w>
mani pul
品 种</w>
he rein
gener ous</w>
一 生</w>
传 达</w>
vulner abilities</w>
汤 姆</w>
引 擎</w>
3 80</w>
巴 尔
审 核</w>
Spec i
R ather</w>
J ack</w>
样 品</w>
set tlers</w>
审 视</w>
流 域</w>
急 需</w>
US A</w>
IC CPR</w>
ver tical</w>
CIS G</w>
Un less</w>
上 限</w>
W ind
Ab del
巨 大
咨询 机构</w>
em ploy</w>
el ed</w>
O E
杀 人</w>
阶 级</w>
X IV</w>
L. 7</w>
降 至</w>
marg in</w>
escal ation</w>
I Z
或 非</w>
may be</w>
艰 巨</w>
bu ff
H ey</w>
tion er</w>
ex trac
汇 集</w>
at ro
天 然</w>
ch urch</w>
I r
停 火
Sou theast</w>
继续 执行</w>
氯 化
t emp
corpor ation</w>
火 车</w>
演 员</w>
搬 迁</w>
m ud
今 晚</w>
contrac ted</w>
垄 断</w>
dra m
ali ke</w>
sec urit
aff aires</w>
即 决</w>
ong side</w>
Ser bian</w>
5 6
ne ed
l o</w>
inter ro
P ER
高 中</w>
阿拉伯 文</w>
关键 因素</w>
con sen
broad en</w>
Muham mad</w>
stream line</w>
Comp act</w>
自然 人</w>
expec tancy</w>
ro ad
bur ning</w>
ag u
缉 获</w>
勇 气</w>
全 氟</w>
remitt ances</w>
pro test</w>
周 末</w>
情 感</w>
deb ted</w>
S ant
Pol y
Norweg ian</w>
斯 基</w>
敌 方</w>
致 力</w>
联络 点</w>
Ju ven
背 后</w>
看 上去</w>
拥 挤</w>
i k</w>
f ting</w>
eigh teenth</w>
char ging</w>
a 's</w>
精神 药物</w>
under mining</w>
总 产值</w>
听 说</w>
pd f</w>
创 作</w>
平 行</w>
r at
c ements</w>
机会 均等</w>
公 顷</w>
生 意</w>
acknowled ging</w>
13 ,
Funda mental</w>
v ol</w>
comp ounds</w>
西 非国家</w>
武装 力量</w>
播 放</w>
correc ted</w>
裁 判</w>
结 成</w>
stor m</w>
cla uses</w>
Not withstanding</w>
之 间
consecu tive</w>
predec essor</w>
Erit re
war ming</w>
provi der</w>
inten se</w>
ali ve</w>
S r
acqu iring</w>
Equ ip
sal t</w>
doctr ine</w>
， 是
说 服</w>
爱 情</w>
diff er</w>
mar ry</w>
股 份</w>
注 明</w>
判 处
persecu tion</w>
达 到
Hist ory</w>
A I
划 定</w>
activis ts</w>
保 证
thro po
sub ordin
Be ir
贝鲁 特</w>
公 约
impe ded</w>
dev ote</w>
同 步</w>
ment arity</w>
thou ghts</w>
liv estock</w>
斯 克</w>
overwhel ming</w>
Y u
Initi al</w>
贝 尔</w>
项目 管理</w>
Trans parency</w>
vic tory</w>
link age</w>
ep tions</w>
Pe tro
孩 子
tal ent</w>
A ge</w>
水 道</w>
强 劲</w>
T am
民 法</w>
控 告</w>
4 20</w>
天 内</w>
hor se</w>
den sity</w>
correspond ence</w>
， 由
透 过</w>
sou l</w>
n ic</w>
Georg ian</w>
过 去
Sci ences</w>
体 重</w>
mass ac
人 们
her o
ou b
第 八</w>
获 释</w>
老 龄
五 名</w>
E T</w>
in ner</w>
In fra
帕 劳</w>
Po or</w>
缅 甸
少 年
参 见</w>
切实 可行</w>
y right</w>
驻 科</w>
球 队</w>
什么 样</w>
电 路</w>
Z hang</w>
mis take</w>
attemp ting</w>
O N
m ide</w>
适用 范围</w>
调解 人</w>
分 阶段</w>
Adv oc
条 所</w>
事 例</w>
evac uation</w>
而 定</w>
wil d</w>
endor se</w>
缺 口</w>
rem nants</w>
inter related</w>
M an</w>
该 科</w>
主管 机关</w>
re ject</w>
bi enni
海 事
登记 处</w>
海 运</w>
优先 权</w>
peace- keeping</w>
fru it
效 能</w>
mal es</w>
依赖 于</w>
布 拉
内 战</w>
AC. 26</w>
volati lity</w>
Dut ch</w>
兰 政府</w>
us efulness</w>
parlia ments</w>
sug ar</w>
Sign ific
self -
揭 示</w>
总 督</w>
K i
天 基</w>
外交 政策</w>
utiliz ing</w>
ol a</w>
FAR DC</w>
混 凝
智 能</w>
gra des</w>
ass ass
监 护</w>
大 于</w>
bor rowing</w>
affir mative</w>
r he
he igh
Beir ut</w>
W S
矿 业</w>
passeng er</w>
cat astroph
联络 处</w>
审 慎</w>
可 信
利害 关系</w>
us ha</w>
半 数</w>
一 向</w>
fl at</w>
b ic
第五 章</w>
反 叛</w>
L. 6</w>
Kim ber
弹 性</w>
存 放</w>
mag istr
at tained</w>
won der</w>
t elling</w>
Over view</w>
K an
IO M</w>
D aily</w>
预 测
紧急 状态</w>
1 1,
国家 主权</w>
f rac
Del iver
connec tivity</w>
co st
ac ent</w>
pric ing</w>
consci ous</w>
Under standing</w>
导 向</w>
as ant</w>
F ront</w>
友 好
先 例</w>
for ci
A F</w>
合 计</w>
a f</w>
spati al</w>
英 语
ref erral</w>
15 ,
公 营</w>
传 染</w>
domin ated</w>
Mex ican</w>
F lo
vi ting</w>
regret ted</w>
pow ering</w>
appreci ates</w>
4. 7</w>
签署 国</w>
四 次</w>
th in</w>
petro leum</w>
ethn icity</w>
填 写</w>
布 林
RO M</w>
冲 突
ak h</w>
医 药</w>
IP O</w>
ba g</w>
U s</w>
淡 水</w>
proc uring</w>
n ance</w>
14 ,
二 次</w>
ven ues</w>
被告 人</w>
read s</w>
辩护 律师</w>
规定 的
construc t</w>
Wh ole</w>
Me di
支 撑</w>
乘 客</w>
pra g
law .</w>
a x</w>
百分 之
步 伐</w>
东 欧国家</w>
運動 會</w>
增 列</w>
ren nial</w>
entitle ment</w>
彼 得</w>
例 外
Ph ysical</w>
L C</w>
D S</w>
stic k</w>
g al
第十 九届</w>
un fair</w>
un clear</w>
st ored</w>
crimin als</w>
2 1st</w>
ID Ps</w>
扮 演</w>
otechn ology</w>
积 压</w>
催 化
通 胀</w>
意识 形态</w>
prec ision</w>
索 取</w>
oun ce</w>
dem ol
Relev ant</w>
I '
董 事</w>
集装 箱</w>
显 而易
接 下来</w>
re unification</w>
hum ans</w>
跨 越</w>
极 其
土耳 其
应 力</w>
selec tive</w>
C ost</w>
philosoph y</w>
conven i
40 1</w>
树 立</w>
pharmaceu tical</w>
accompl ish</w>
速 效</w>
movi e</w>
be at</w>
毫 不
Kiv u</w>
E c
第 一份</w>
义务 教育</w>
K at
Prepar ation</w>
塞浦路斯 共和国</w>
purch ased</w>
控制 系统</w>
stock piles</w>
据 估计</w>
取 缔</w>
mu t
示 威
民主 党</w>
libr aries</w>
UND G</w>
L ack</w>
C F</w>
wor sen
o x</w>
C up</w>
Aut onom
scen arios</w>
traffic ked</w>
cust odi
co stly</w>
表示 遗憾</w>
一次 性</w>
sour cing</w>
e ating</w>
无 须</w>
务 部</w>
comfor table</w>
30 2</w>
休 假</w>
phot ograph
ol en</w>
Intel lectual</w>
horizon tal</w>
工作 日</w>
认 知</w>
fu n</w>
E ight</w>
表示 满意</w>
无 家
所 需</w>
友 谊</w>
pa res</w>
herein after</w>
Im mun
宗教 信仰</w>
sy l
sustain ment</w>
investig ators</w>
comb ine</w>
简 易</w>
perpe tu
N ext</w>
200 6
性 行为</w>
smo ke</w>
enth usi
车 队</w>
execu ting</w>
储 备金</w>
Ser b</w>
scour ge</w>
li kewise</w>
造 成
M y
Wat ch</w>
无家 可
ti ed</w>
mer it</w>
alleg ation</w>
B Y</w>
year .</w>
succ essive</w>
同 期</w>
lo ading</w>
挖 掘</w>
explo ded</w>
F ull</w>
演 习</w>
b acked</w>
下 落</w>
oper ator</w>
bre ast</w>
货 运</w>
beau ty</w>
argu e</w>
追 究
种族 隔离</w>
中央 政府</w>
舞 台</w>
vi an</w>
polic ing</w>
tor tured</w>
man n</w>
la d</w>
进 攻</w>
其 管辖</w>
re l</w>
不 动产</w>
29 8</w>
minis try</w>
er als</w>
ell o</w>
al be
leg acy</w>
营 利</w>
sol ic
priv atization</w>
UNME E</w>
航 班</w>
很 小</w>
已 知</w>
Indic ators</w>
那 位</w>
es a</w>
黑 人</w>
L. 5</w>
生殖 器</w>
以 免</w>
sud den</w>
infec tious</w>
cl ea
m o</w>
P resent
es .
encoura gement</w>
带 到</w>
定 型</w>
夫 妇</w>
核 设施</w>
Th ematic</w>
2 71</w>
日常 生活</w>
个 月
院 校</w>
外 汇</w>
之 害</w>
ell er</w>
中 为</w>
wal ked</w>
seiz ure</w>
ex porting</w>
dialog ues</w>
威 尔
L. 8</w>
扫 描</w>
embodi ed</w>
col l
原 有</w>
不结 盟</w>
con fined</w>
S anc
C ities</w>
S ports</w>
IFA D</w>
营 业</w>
估 价</w>
vari able</w>
li ver</w>
fe deration</w>
夫 妻</w>
地下 水</w>
li ti
assign ments</w>
终 身</w>
农业 部门</w>
S cho
荣 誉</w>
液 体</w>
洪 水</w>
trage dy</w>
resi ding</w>
构成 威胁</w>
损 害
公共 秩序</w>
d ose</w>
毕业 生</w>
ran ks</w>
crow d</w>
Pro bl
无 数</w>
管 制
灾 后</w>
Tem porary</w>
Con tact</w>
汇 总</w>
安全 性</w>
北 美</w>
东 非</w>
ach ment</w>
B ad
fle w</w>
G oo
美 联
第一 百
京 群岛</w>
inform ing</w>
doub ts</w>
书 籍</w>
M et
bi tions</w>
a id
动 物
不 懈</w>
convic tions</w>
横 向</w>
律师 协会</w>
R E</w>
O S</w>
lov ed</w>
Commun ities</w>
聪 明</w>
急 性</w>
农 发</w>
L it
发 动机</w>
一 群</w>
某 项</w>
3. 7</w>
en tic
n ative</w>
Alban ian</w>
5 20</w>
over see</w>
compens ate</w>
bre aks</w>
Are as</w>
专业 知识</w>
ME ET
产 物</w>
out lines</w>
纪 录</w>
奇 怪</w>
侵 入</w>
之 一
par amount</w>
anc e.</w>
3 11</w>
军 用
mol ec
advis er</w>
200 4
飞 行
除 此
联 发援</w>
isi on
舆 论</w>
协 力</w>
f ounding</w>
prof iles</w>
太平 洋
多 万</w>
k h
fro zen</w>
M aria</w>
编 码</w>
使 人</w>
d an</w>
Ben ef
河 流</w>
柏 林</w>
总 表</w>
地理 信息系统</w>
ti um</w>
extr action</w>
Exam ples</w>
restra int</w>
疗 效</w>
forwar ded</w>
determin es</w>
She ik
人 事
显而易 见</w>
tr e</w>
par k</w>
ce iling</w>
沉 默</w>
构 造</w>
exacerb ated</w>
是 非</w>
compl ied</w>
7 月</w>
长 度</w>
维尔 京群岛</w>
初 等教育</w>
sh ee
pol lutants</w>
日 后</w>
大 致</w>
Rel ation
remain der</w>
probl em
o ke</w>
迪 西</w>
采 集</w>
字 母</w>
R ol
透 露</w>
流 产</w>
fel low</w>
democr atization</w>
c ation</w>
联合 体</w>
前 者</w>
局 部</w>
iden tical</w>
as certain</w>
Ser ies</w>
早 些时候</w>
h as
competen cies</w>
30 3</w>
esti val</w>
国 集团</w>
等 国</w>
Satell ite</w>
尽 全力</w>
he ating</w>
Sh or
A si
assi fication</w>
s n
con fin
Sc ope</w>
新 的
ab ove
X VI</w>
Hass an</w>
近 来</w>
r atory</w>
over n</w>
mobil ized</w>
cohe sion</w>
糖 尿
埃 尔</w>
f ran
se di
g ift</w>
Sm ith</w>
总 之</w>
否 定</w>
UNA MSIL</w>
S ab
Lim ited</w>
附 加
调查 员</w>
行 业
申请 者</w>
三 角</w>
值得 注意</w>
comple mentarity</w>
L. 9</w>
审 案</w>
摩尔多 瓦</w>
人 称</w>
法律 依据</w>
战 胜</w>
susta ining</w>
deep er</w>
ap pendix</w>
Aud itor</w>
条 例
人员 编制</w>
municip ality</w>
管理 员</w>
法 医</w>
dro me</w>
an j
IP CC</w>
4. 8</w>
in appropriate</w>
im balances</w>
“ 我
im a</w>
got ten</w>
er arch
Th rou
混凝 土</w>
变 为</w>
s ad</w>
G old
29 7</w>
抱 怨</w>
f ast
红 新
亲 自</w>
coura ge</w>
GH G</w>
re tail</w>
human e</w>
four teenth</w>
cons isted</w>
代 办</w>
众 议院</w>
a bet
&apos; affaires</w>
定 价</w>
sup pression</w>
29 3</w>
over arching</w>
institu ted</w>
pain ting</w>
d og
谈 谈</w>
前 途</w>
OD S</w>
ro unds</w>
less on</w>
Stock piling</w>
No thing</w>
explain s</w>
colleg es</w>
Consul tations</w>
Accor d</w>
隐 私</w>
曲 线</w>
T ex
四 名</w>
en act</w>
A CT
不论 是</w>
L ic
头 发</w>
千 克</w>
务 实</w>
stat eless</w>
操 纵</w>
喀 布尔</w>
per man
困 扰</w>
法律 义务</w>
cir cle</w>
9 17</w>
a sive</w>
5 4
el and</w>
一 倍</w>
ab duction</w>
O w
阿拉 木
Pal au</w>
inter cultural</w>
HR I</w>
中 等教育</w>
S L
30 7</w>
对 照</w>
advoc ates</w>
申请 书</w>
创造 性</w>
乔 治</w>
progres sively</w>
it ory</w>
des erve</w>
Christ mas</w>
人 类
tail ored</w>
succ esses</w>
militi as</w>
Sup porting</w>
超 过
职 者</w>
殖 民</w>
al ter
IC SC</w>
Ethiop ian</w>
Ann exes</w>
Simil ar</w>
Res erv
Op in
第十 五届</w>
成 千
一 案</w>
th row</w>
el ing</w>
UNMI T</w>
200 5
18 74</w>
特 有</w>
伊 尔</w>
ass istant</w>
Minis tries</w>
Hosp ital</w>
mon ies</w>
is co</w>
form erly</w>
社 区
奉 行</w>
大 力支持</w>
i di
freez ing</w>
近 几
举 行
program m
呈 现</w>
E specially</w>
通知 书</w>
educ ated</w>
Throu ghout</w>
比 较
emp ty</w>
condem n</w>
发 票</w>
l end</w>
Ex pec
cust om</w>
bir d</w>
C anc
un equiv
open ness</w>
UNA 0
此 基础</w>
man if
UNOMI G</w>
受 欢迎</w>
H S</w>
男 童</w>
sur prise</w>
pass port</w>
nar cotic</w>
X L
Evid ence</w>
l acked</w>
gener ic</w>
17 ,
第十 六届</w>
并 入</w>
线 路</w>
杀 死</w>
p ac
child ren
标 识</w>
名 誉</w>
R P
fe ars</w>
Pri mary</w>
10 th</w>
谈 判
完全 符合</w>
Na qu
Fun ding</w>
球 员</w>
追 查</w>
第 九</w>
增 订</w>
庇 护
ste ering</w>
log y</w>
靠 近</w>
罗 斯</w>
u sion</w>
gu ards</w>
block ade</w>
[...]
